#include "magic_wand_model_data.h"

// We need to keep the data array aligned on some architectures.
#ifdef __has_attribute
#define HAVE_ATTRIBUTE(x) __has_attribute(x)
#else
#define HAVE_ATTRIBUTE(x) 0
#endif
#if HAVE_ATTRIBUTE(aligned) || (defined(__GNUC__) && !defined(__clang__))
#define DATA_ALIGN_ATTRIBUTE __attribute__((aligned(4)))
#else
#define DATA_ALIGN_ATTRIBUTE
#endif

const unsigned char g_magic_wand_model_data[] DATA_ALIGN_ATTRIBUTE = {
  // Paste the data of the char array in `src/model.cc` here
  0x08, 0x00, 0x00, 0x00, 0x54, 0x46, 0x4c, 0x33, 0x62, 0xff, 0xff, 0xff,
  0x03, 0x00, 0x00, 0x00, 0x10, 0x00, 0x00, 0x00, 0x24, 0x00, 0x00, 0x00,
  0x78, 0x00, 0x00, 0x00, 0x24, 0x00, 0x00, 0x00, 0x05, 0x00, 0x00, 0x00,
  0x78, 0x05, 0x00, 0x00, 0xb0, 0x04, 0x00, 0x00, 0xe0, 0x02, 0x00, 0x00,
  0x60, 0x02, 0x00, 0x00, 0x54, 0x01, 0x00, 0x00, 0x01, 0x00, 0x00, 0x00,
  0x78, 0x00, 0x00, 0x00, 0x13, 0x00, 0x00, 0x00, 0xd4, 0x2f, 0x00, 0x00,
  0xd0, 0x2f, 0x00, 0x00, 0xdc, 0x2e, 0x00, 0x00, 0x68, 0x2e, 0x00, 0x00,
  0xfc, 0x2d, 0x00, 0x00, 0xac, 0x11, 0x00, 0x00, 0x98, 0x10, 0x00, 0x00,
  0xbc, 0x0e, 0x00, 0x00, 0x60, 0x06, 0x00, 0x00, 0xfc, 0x05, 0x00, 0x00,
  0x78, 0x05, 0x00, 0x00, 0xa8, 0x2f, 0x00, 0x00, 0xa4, 0x2f, 0x00, 0x00,
  0xa0, 0x2f, 0x00, 0x00, 0x9c, 0x2f, 0x00, 0x00, 0x98, 0x2f, 0x00, 0x00,
  0x94, 0x2f, 0x00, 0x00, 0x90, 0x2f, 0x00, 0x00, 0x8c, 0x2f, 0x00, 0x00,
  0x0f, 0x00, 0x00, 0x00, 0x4d, 0x4c, 0x49, 0x52, 0x20, 0x43, 0x6f, 0x6e,
  0x76, 0x65, 0x72, 0x74, 0x65, 0x64, 0x2e, 0x00, 0x00, 0x00, 0x0e, 0x00,
  0x18, 0x00, 0x04, 0x00, 0x08, 0x00, 0x0c, 0x00, 0x10, 0x00, 0x14, 0x00,
  0x0e, 0x00, 0x00, 0x00, 0x14, 0x00, 0x00, 0x00, 0x5c, 0x00, 0x00, 0x00,
  0x60, 0x00, 0x00, 0x00, 0x64, 0x00, 0x00, 0x00, 0x84, 0x00, 0x00, 0x00,
  0x12, 0x00, 0x00, 0x00, 0x04, 0x2f, 0x00, 0x00, 0xa0, 0x2e, 0x00, 0x00,
  0xf8, 0x2d, 0x00, 0x00, 0x98, 0x2d, 0x00, 0x00, 0x30, 0x2d, 0x00, 0x00,
  0xdc, 0x10, 0x00, 0x00, 0xc0, 0x0f, 0x00, 0x00, 0xe4, 0x0d, 0x00, 0x00,
  0xa0, 0x05, 0x00, 0x00, 0x3c, 0x05, 0x00, 0x00, 0xb0, 0x04, 0x00, 0x00,
  0xe8, 0x03, 0x00, 0x00, 0x38, 0x03, 0x00, 0x00, 0xa4, 0x02, 0x00, 0x00,
  0x10, 0x02, 0x00, 0x00, 0x90, 0x01, 0x00, 0x00, 0xfc, 0x00, 0x00, 0x00,
  0x80, 0x00, 0x00, 0x00, 0x01, 0x00, 0x00, 0x00, 0x00, 0x00, 0x00, 0x00,
  0x01, 0x00, 0x00, 0x00, 0x11, 0x00, 0x00, 0x00, 0x08, 0x00, 0x00, 0x00,
  0x1c, 0x04, 0x00, 0x00, 0x58, 0x03, 0x00, 0x00, 0xc8, 0x02, 0x00, 0x00,
  0x24, 0x02, 0x00, 0x00, 0xac, 0x01, 0x00, 0x00, 0x10, 0x01, 0x00, 0x00,
  0x94, 0x00, 0x00, 0x00, 0x10, 0x00, 0x00, 0x00, 0x04, 0x00, 0x00, 0x00,
  0x6d, 0x61, 0x69, 0x6e, 0x00, 0x00, 0x00, 0x00, 0x8e, 0xff, 0xff, 0xff,
  0x00, 0x00, 0x00, 0x09, 0x04, 0x00, 0x00, 0x00, 0x1c, 0x00, 0x00, 0x00,
  0x10, 0x00, 0x00, 0x00, 0x04, 0x00, 0x00, 0x00, 0x4e, 0xd2, 0xff, 0xff,
  0x00, 0x00, 0x80, 0x3f, 0x01, 0x00, 0x00, 0x00, 0x11, 0x00, 0x00, 0x00,
  0x01, 0x00, 0x00, 0x00, 0x10, 0x00, 0x00, 0x00, 0xf6, 0xfb, 0xff, 0xff,
  0x00, 0x00, 0x00, 0x19, 0x01, 0x00, 0x00, 0x00, 0xce, 0xd1, 0xff, 0xff,
  0x10, 0x00, 0x00, 0x00, 0x12, 0x00, 0x00, 0x00, 0x14, 0x00, 0x00, 0x00,
  0x20, 0x00, 0x00, 0x00, 0x02, 0x00, 0x00, 0x00, 0x01, 0x00, 0x00, 0x00,
  0x03, 0x00, 0x00, 0x00, 0x08, 0x00, 0x00, 0x00, 0x49, 0x64, 0x65, 0x6e,
  0x74, 0x69, 0x74, 0x79, 0x00, 0x00, 0x00, 0x00, 0x08, 0xd2, 0xff, 0xff,
  0x00, 0x00, 0x0e, 0x00, 0x18, 0x00, 0x08, 0x00, 0x0c, 0x00, 0x10, 0x00,
  0x07, 0x00, 0x14, 0x00, 0x0e, 0x00, 0x00, 0x00, 0x00, 0x00, 0x00, 0x08,
  0x03, 0x00, 0x00, 0x00, 0x18, 0x00, 0x00, 0x00, 0x0c, 0x00, 0x00, 0x00,
  0x04, 0x00, 0x00, 0x00, 0xdc, 0xd1, 0xff, 0xff, 0x01, 0x00, 0x00, 0x00,
  0x10, 0x00, 0x00, 0x00, 0x03, 0x00, 0x00, 0x00, 0x0f, 0x00, 0x00, 0x00,
  0x05, 0x00, 0x00, 0x00, 0x02, 0x00, 0x00, 0x00, 0x46, 0xd2, 0xff, 0xff,
  0x10, 0x00, 0x00, 0x00, 0x11, 0x00, 0x00, 0x00, 0x14, 0x00, 0x00, 0x00,
  0x30, 0x00, 0x00, 0x00, 0x02, 0x00, 0x00, 0x00, 0x01, 0x00, 0x00, 0x00,
  0x03, 0x00, 0x00, 0x00, 0x1a, 0x00, 0x00, 0x00, 0x73, 0x65, 0x71, 0x75,
  0x65, 0x6e, 0x74, 0x69, 0x61, 0x6c, 0x2f, 0x64, 0x65, 0x6e, 0x73, 0x65,
  0x5f, 0x31, 0x2f, 0x42, 0x69, 0x61, 0x73, 0x41, 0x64, 0x64, 0x00, 0x00,
  0x38, 0xd2, 0xff, 0xff, 0xd6, 0xfd, 0xff, 0xff, 0x00, 0x00, 0x00, 0x08,
  0x03, 0x00, 0x00, 0x00, 0x24, 0x00, 0x00, 0x00, 0x18, 0x00, 0x00, 0x00,
  0x0c, 0x00, 0x00, 0x00, 0x00, 0x00, 0x06, 0x00, 0x08, 0x00, 0x07, 0x00,
  0x06, 0x00, 0x00, 0x00, 0x00, 0x00, 0x00, 0x01, 0x01, 0x00, 0x00, 0x00,
  0x0f, 0x00, 0x00, 0x00, 0x03, 0x00, 0x00, 0x00, 0x0e, 0x00, 0x00, 0x00,
  0x04, 0x00, 0x00, 0x00, 0x01, 0x00, 0x00, 0x00, 0xfe, 0xfc, 0xff, 0xff,
  0x00, 0x00, 0x00, 0x09, 0x01, 0x00, 0x00, 0x00, 0xd6, 0xd2, 0xff, 0xff,
  0x10, 0x00, 0x00, 0x00, 0x10, 0x00, 0x00, 0x00, 0x14, 0x00, 0x00, 0x00,
  0x2c, 0x00, 0x00, 0x00, 0x02, 0x00, 0x00, 0x00, 0x01, 0x00, 0x00, 0x00,
  0x10, 0x00, 0x00, 0x00, 0x15, 0x00, 0x00, 0x00, 0x73, 0x65, 0x71, 0x75,
  0x65, 0x6e, 0x74, 0x69, 0x61, 0x6c, 0x2f, 0x64, 0x65, 0x6e, 0x73, 0x65,
  0x2f, 0x52, 0x65, 0x6c, 0x75, 0x00, 0x00, 0x00, 0x1c, 0xd3, 0xff, 0xff,
  0x00, 0x00, 0x0a, 0x00, 0x10, 0x00, 0x04, 0x00, 0x08, 0x00, 0x0c, 0x00,
  0x0a, 0x00, 0x00, 0x00, 0x02, 0x00, 0x00, 0x00, 0x10, 0x00, 0x00, 0x00,
  0x04, 0x00, 0x00, 0x00, 0x01, 0x00, 0x00, 0x00, 0x0e, 0x00, 0x00, 0x00,
  0x02, 0x00, 0x00, 0x00, 0x0d, 0x00, 0x00, 0x00, 0x03, 0x00, 0x00, 0x00,
  0x7a, 0xfd, 0xff, 0xff, 0x00, 0x00, 0x00, 0x16, 0x01, 0x00, 0x00, 0x00,
  0x52, 0xd3, 0xff, 0xff, 0x10, 0x00, 0x00, 0x00, 0x0f, 0x00, 0x00, 0x00,
  0x14, 0x00, 0x00, 0x00, 0x30, 0x00, 0x00, 0x00, 0x02, 0x00, 0x00, 0x00,
  0x01, 0x00, 0x00, 0x00, 0x70, 0x00, 0x00, 0x00, 0x1a, 0x00, 0x00, 0x00,
  0x73, 0x65, 0x71, 0x75, 0x65, 0x6e, 0x74, 0x69, 0x61, 0x6c, 0x2f, 0x66,
  0x6c, 0x61, 0x74, 0x74, 0x65, 0x6e, 0x2f, 0x52, 0x65, 0x73, 0x68, 0x61,
  0x70, 0x65, 0x00, 0x00, 0x44, 0xd3, 0xff, 0xff, 0xe2, 0xfe, 0xff, 0xff,
  0x00, 0x00, 0x00, 0x05, 0x01, 0x00, 0x00, 0x00, 0x38, 0x00, 0x00, 0x00,
  0x2c, 0x00, 0x00, 0x00, 0x14, 0x00, 0x00, 0x00, 0x00, 0x00, 0x0e, 0x00,
  0x14, 0x00, 0x00, 0x00, 0x10, 0x00, 0x0c, 0x00, 0x08, 0x00, 0x04, 0x00,
  0x0e, 0x00, 0x00, 0x00, 0x03, 0x00, 0x00, 0x00, 0x01, 0x00, 0x00, 0x00,
  0x03, 0x00, 0x00, 0x00, 0x01, 0x00, 0x00, 0x00, 0x01, 0x00, 0x00, 0x00,
  0x0d, 0x00, 0x00, 0x00, 0x01, 0x00, 0x00, 0x00, 0x0c, 0x00, 0x00, 0x00,
  0xe2, 0xd3, 0xff, 0xff, 0x10, 0x00, 0x00, 0x00, 0x0e, 0x00, 0x00, 0x00,
  0x1c, 0x00, 0x00, 0x00, 0x40, 0x00, 0x00, 0x00, 0x04, 0x00, 0x00, 0x00,
  0x01, 0x00, 0x00, 0x00, 0x07, 0x00, 0x00, 0x00, 0x01, 0x00, 0x00, 0x00,
  0x10, 0x00, 0x00, 0x00, 0x22, 0x00, 0x00, 0x00, 0x73, 0x65, 0x71, 0x75,
  0x65, 0x6e, 0x74, 0x69, 0x61, 0x6c, 0x2f, 0x6d, 0x61, 0x78, 0x5f, 0x70,
  0x6f, 0x6f, 0x6c, 0x69, 0x6e, 0x67, 0x32, 0x64, 0x5f, 0x31, 0x2f, 0x4d,
  0x61, 0x78, 0x50, 0x6f, 0x6f, 0x6c, 0x00, 0x00, 0xe4, 0xd3, 0xff, 0xff,
  0xc2, 0xfe, 0xff, 0xff, 0x00, 0x00, 0x00, 0x01, 0x24, 0x00, 0x00, 0x00,
  0x18, 0x00, 0x00, 0x00, 0x04, 0x00, 0x00, 0x00, 0xb4, 0xfe, 0xff, 0xff,
  0x01, 0x00, 0x00, 0x00, 0x01, 0x00, 0x00, 0x00, 0x00, 0x00, 0x00, 0x01,
  0x01, 0x00, 0x00, 0x00, 0x0c, 0x00, 0x00, 0x00, 0x03, 0x00, 0x00, 0x00,
  0x0b, 0x00, 0x00, 0x00, 0x07, 0x00, 0x00, 0x00, 0x09, 0x00, 0x00, 0x00,
  0x72, 0xd4, 0xff, 0xff, 0x10, 0x00, 0x00, 0x00, 0x0d, 0x00, 0x00, 0x00,
  0x1c, 0x00, 0x00, 0x00, 0x2c, 0x00, 0x00, 0x00, 0x04, 0x00, 0x00, 0x00,
  0x01, 0x00, 0x00, 0x00, 0x15, 0x00, 0x00, 0x00, 0x01, 0x00, 0x00, 0x00,
  0x10, 0x00, 0x00, 0x00, 0x0c, 0x00, 0x00, 0x00, 0x74, 0x66, 0x6c, 0x2e,
  0x63, 0x6f, 0x6e, 0x76, 0x5f, 0x32, 0x64, 0x31, 0x00, 0x00, 0x00, 0x00,
  0xb8, 0xd4, 0xff, 0xff, 0x00, 0x00, 0x0e, 0x00, 0x1a, 0x00, 0x08, 0x00,
  0x0c, 0x00, 0x10, 0x00, 0x07, 0x00, 0x14, 0x00, 0x0e, 0x00, 0x00, 0x00,
  0x00, 0x00, 0x00, 0x05, 0x01, 0x00, 0x00, 0x00, 0x3c, 0x00, 0x00, 0x00,
  0x30, 0x00, 0x00, 0x00, 0x14, 0x00, 0x00, 0x00, 0x00, 0x00, 0x0e, 0x00,
  0x18, 0x00, 0x17, 0x00, 0x10, 0x00, 0x0c, 0x00, 0x08, 0x00, 0x04, 0x00,
  0x0e, 0x00, 0x00, 0x00, 0x03, 0x00, 0x00, 0x00, 0x03, 0x00, 0x00, 0x00,
  0x03, 0x00, 0x00, 0x00, 0x03, 0x00, 0x00, 0x00, 0x00, 0x00, 0x00, 0x01,
  0x01, 0x00, 0x00, 0x00, 0x0b, 0x00, 0x00, 0x00, 0x01, 0x00, 0x00, 0x00,
  0x0a, 0x00, 0x00, 0x00, 0x46, 0xff, 0xff, 0xff, 0x00, 0x00, 0x00, 0x11,
  0x01, 0x00, 0x00, 0x00, 0x1e, 0xd5, 0xff, 0xff, 0x10, 0x00, 0x00, 0x00,
  0x0c, 0x00, 0x00, 0x00, 0x1c, 0x00, 0x00, 0x00, 0x40, 0x00, 0x00, 0x00,
  0x04, 0x00, 0x00, 0x00, 0x01, 0x00, 0x00, 0x00, 0x15, 0x00, 0x00, 0x00,
  0x01, 0x00, 0x00, 0x00, 0x08, 0x00, 0x00, 0x00, 0x20, 0x00, 0x00, 0x00,
  0x73, 0x65, 0x71, 0x75, 0x65, 0x6e, 0x74, 0x69, 0x61, 0x6c, 0x2f, 0x6d,
  0x61, 0x78, 0x5f, 0x70, 0x6f, 0x6f, 0x6c, 0x69, 0x6e, 0x67, 0x32, 0x64,
  0x2f, 0x4d, 0x61, 0x78, 0x50, 0x6f, 0x6f, 0x6c, 0x00, 0x00, 0x00, 0x00,
  0x78, 0xd5, 0xff, 0xff, 0x00, 0x00, 0x0e, 0x00, 0x14, 0x00, 0x00, 0x00,
  0x08, 0x00, 0x0c, 0x00, 0x07, 0x00, 0x10, 0x00, 0x0e, 0x00, 0x00, 0x00,
  0x00, 0x00, 0x00, 0x01, 0x30, 0x00, 0x00, 0x00, 0x24, 0x00, 0x00, 0x00,
  0x10, 0x00, 0x00, 0x00, 0x0c, 0x00, 0x10, 0x00, 0x00, 0x00, 0x04, 0x00,
  0x08, 0x00, 0x0f, 0x00, 0x0c, 0x00, 0x00, 0x00, 0x01, 0x00, 0x00, 0x00,
  0x01, 0x00, 0x00, 0x00, 0x00, 0x00, 0x00, 0x01, 0x01, 0x00, 0x00, 0x00,
  0x0a, 0x00, 0x00, 0x00, 0x03, 0x00, 0x00, 0x00, 0x00, 0x00, 0x00, 0x00,
  0x06, 0x00, 0x00, 0x00, 0x08, 0x00, 0x00, 0x00, 0x00, 0x00, 0x0a, 0x00,
  0x0c, 0x00, 0x07, 0x00, 0x00, 0x00, 0x08, 0x00, 0x0a, 0x00, 0x00, 0x00,
  0x00, 0x00, 0x00, 0x03, 0x01, 0x00, 0x00, 0x00, 0xe2, 0xd5, 0xff, 0xff,
  0x10, 0x00, 0x00, 0x00, 0x0b, 0x00, 0x00, 0x00, 0x1c, 0x00, 0x00, 0x00,
  0x28, 0x00, 0x00, 0x00, 0x04, 0x00, 0x00, 0x00, 0x01, 0x00, 0x00, 0x00,
  0x40, 0x00, 0x00, 0x00, 0x03, 0x00, 0x00, 0x00, 0x08, 0x00, 0x00, 0x00,
  0x0b, 0x00, 0x00, 0x00, 0x74, 0x66, 0x6c, 0x2e, 0x63, 0x6f, 0x6e, 0x76,
  0x5f, 0x32, 0x64, 0x00, 0xcc, 0xd5, 0xff, 0xff, 0xc2, 0xd6, 0xff, 0xff,
  0x04, 0x00, 0x00, 0x00, 0x40, 0x00, 0x00, 0x00, 0x2f, 0x81, 0xf2, 0x3e,
  0x8a, 0x3b, 0x7d, 0x3d, 0xfc, 0x75, 0x2d, 0xbf, 0x87, 0xd3, 0xe4, 0xbe,
  0x8c, 0x86, 0x86, 0x3d, 0x97, 0x11, 0xe7, 0xbc, 0xb5, 0xd3, 0x06, 0xbf,
  0xf9, 0xd5, 0xf8, 0x3e, 0x9e, 0xa4, 0xe0, 0xbe, 0xd5, 0xde, 0x6e, 0xbe,
  0x4b, 0x9a, 0x4e, 0xbd, 0x7f, 0xee, 0xb4, 0xbe, 0x46, 0x96, 0xce, 0x3f,
  0x4e, 0xc8, 0x13, 0xbf, 0xa6, 0xc8, 0x50, 0xbf, 0xbf, 0x5d, 0x9e, 0x3f,
  0x6a, 0xd6, 0xff, 0xff, 0x10, 0x00, 0x00, 0x00, 0x0a, 0x00, 0x00, 0x00,
  0x10, 0x00, 0x00, 0x00, 0x20, 0x00, 0x00, 0x00, 0x01, 0x00, 0x00, 0x00,
  0x10, 0x00, 0x00, 0x00, 0x0d, 0x00, 0x00, 0x00, 0x73, 0x74, 0x64, 0x2e,
  0x63, 0x6f, 0x6e, 0x73, 0x74, 0x61, 0x6e, 0x74, 0x31, 0x00, 0x00, 0x00,
  0x4c, 0xd6, 0xff, 0xff, 0x42, 0xd7, 0xff, 0xff, 0x04, 0x00, 0x00, 0x00,
  0x20, 0x00, 0x00, 0x00, 0x7f, 0x11, 0x86, 0xbf, 0x1f, 0x5f, 0x0d, 0xbf,
  0x0e, 0x0b, 0xc3, 0x3e, 0x90, 0x78, 0x14, 0xbf, 0x8d, 0x52, 0x3f, 0xbf,
  0xde, 0x31, 0x53, 0xbf, 0x38, 0xfe, 0xda, 0xbf, 0x56, 0x92, 0x8c, 0xbe,
  0xca, 0xd6, 0xff, 0xff, 0x10, 0x00, 0x00, 0x00, 0x09, 0x00, 0x00, 0x00,
  0x10, 0x00, 0x00, 0x00, 0x20, 0x00, 0x00, 0x00, 0x01, 0x00, 0x00, 0x00,
  0x08, 0x00, 0x00, 0x00, 0x0c, 0x00, 0x00, 0x00, 0x73, 0x74, 0x64, 0x2e,
  0x63, 0x6f, 0x6e, 0x73, 0x74, 0x61, 0x6e, 0x74, 0x00, 0x00, 0x00, 0x00,
  0xac, 0xd6, 0xff, 0xff, 0xa2, 0xd7, 0xff, 0xff, 0x04, 0x00, 0x00, 0x00,
  0x00, 0x08, 0x00, 0x00, 0x07, 0xd4, 0x15, 0x3e, 0x7b, 0xf0, 0xb8, 0xbe,
  0x6f, 0xc0, 0x1d, 0xbd, 0x08, 0x8e, 0x97, 0xbe, 0x3a, 0xd7, 0xa0, 0xbd,
  0x57, 0x2b, 0xaf, 0xbd, 0x60, 0xf1, 0x98, 0x3d, 0x46, 0xe1, 0xc8, 0x3c,
  0x3b, 0xfd, 0x15, 0x3d, 0xe0, 0xe6, 0xe5, 0xbd, 0x5a, 0xe7, 0x87, 0xbc,
  0xdf, 0x26, 0x35, 0xbd, 0xf4, 0x6f, 0xd1, 0x3d, 0xc9, 0x4f, 0x6a, 0x3e,
  0x21, 0x35, 0x13, 0x3d, 0x03, 0x98, 0xb9, 0x3d, 0x8e, 0xb3, 0xa2, 0x3e,
  0x1e, 0x03, 0x0d, 0xbe, 0x9e, 0x9e, 0x08, 0x3c, 0xd8, 0xd7, 0x80, 0x3e,
  0x13, 0xae, 0x9d, 0x3e, 0xd4, 0x5c, 0x1c, 0x3e, 0xfb, 0xd1, 0x1e, 0xbc,
  0xb7, 0x79, 0x64, 0xbe, 0x89, 0xdd, 0x50, 0xbd, 0xc0, 0x6b, 0x6c, 0xbe,
  0x42, 0x0b, 0x46, 0x3d, 0xcb, 0x64, 0x37, 0x3d, 0x4f, 0xed, 0x8e, 0x3d,
  0xc2, 0xba, 0xe8, 0xbd, 0xfa, 0x93, 0xf3, 0xbc, 0x6a, 0x67, 0x6e, 0xbd,
  0x8c, 0x96, 0xf2, 0xbc, 0x1c, 0x85, 0x64, 0xbe, 0xb3, 0xcc, 0xdb, 0xbc,
  0xa9, 0x83, 0xcc, 0xbd, 0x23, 0x5a, 0x9e, 0xbd, 0x30, 0x6c, 0x68, 0xbe,
  0x02, 0x75, 0x7c, 0xbe, 0x8b, 0x25, 0x88, 0xbd, 0xb1, 0x89, 0x11, 0xbe,
  0x61, 0x18, 0x80, 0x3d, 0x54, 0x78, 0x00, 0x3e, 0xcf, 0xc5, 0x01, 0x3e,
  0x30, 0x89, 0xbe, 0xbd, 0x4d, 0xb6, 0xff, 0xbd, 0xb7, 0x2b, 0xcd, 0x3e,
  0x09, 0x5a, 0x7e, 0x3e, 0xe8, 0xde, 0x21, 0xbe, 0xea, 0xb0, 0xe9, 0x3c,
  0x17, 0x9a, 0xf6, 0x3d, 0xa5, 0x9d, 0xde, 0x3c, 0x67, 0x7c, 0x9d, 0xbe,
  0xd6, 0x26, 0x10, 0xbe, 0x9f, 0x20, 0x17, 0xbe, 0x70, 0xf1, 0x88, 0xbb,
  0xdb, 0x89, 0x6f, 0xbe, 0xe5, 0x58, 0x9b, 0x3e, 0x55, 0x93, 0x68, 0x3e,
  0xec, 0xc7, 0xc2, 0x3d, 0x6b, 0x7d, 0x55, 0xbe, 0xf2, 0x07, 0x36, 0xbd,
  0x9b, 0xe7, 0x75, 0x3d, 0x7a, 0x35, 0xe3, 0x3e, 0x23, 0xfd, 0x9b, 0x3d,
  0xf2, 0x91, 0x4c, 0x3d, 0xbc, 0x35, 0x83, 0xbe, 0x71, 0xc8, 0x5e, 0xbe,
  0xb4, 0xd3, 0x1f, 0xbd, 0x32, 0x07, 0x63, 0x3e, 0x03, 0xe8, 0x65, 0x3e,
  0x36, 0xb5, 0x99, 0x3e, 0xf4, 0x4a, 0x61, 0x3e, 0x18, 0x8c, 0xe1, 0xbd,
  0x68, 0xd1, 0x95, 0xbe, 0xda, 0x65, 0x83, 0xbe, 0xff, 0x49, 0x02, 0x3e,
  0x2f, 0xb4, 0x81, 0x3e, 0x30, 0xf7, 0x95, 0x3e, 0x27, 0x64, 0xc6, 0x3e,
  0xad, 0x1d, 0x37, 0xbe, 0xf4, 0x48, 0xe6, 0x3d, 0xc8, 0xb4, 0x22, 0xbe,
  0xa6, 0x2d, 0xd5, 0xbe, 0x2d, 0x84, 0xc0, 0x3d, 0xd0, 0x9e, 0x23, 0xbd,
  0x1c, 0x5a, 0xfc, 0xbd, 0x8a, 0x71, 0x8c, 0x3e, 0x57, 0x6d, 0x49, 0xbe,
  0x67, 0xd6, 0x5a, 0x3e, 0xec, 0x67, 0x7e, 0xbc, 0xe3, 0x31, 0x03, 0x3c,
  0xd1, 0x97, 0x89, 0xbc, 0x82, 0x98, 0xa9, 0xbe, 0xb8, 0xd4, 0x66, 0xbe,
  0x50, 0x15, 0xa9, 0x3e, 0xcb, 0x7b, 0xde, 0xbd, 0xe7, 0x41, 0xcb, 0x3e,
  0x51, 0x1f, 0x89, 0x3d, 0x3b, 0xdd, 0x62, 0x3d, 0x04, 0x00, 0xc5, 0xbd,
  0x1b, 0x3f, 0xa5, 0xbe, 0xa2, 0x89, 0x44, 0xbe, 0xcf, 0x02, 0x5d, 0x3e,
  0x85, 0x8e, 0x16, 0xbe, 0x74, 0xd6, 0xe5, 0x3c, 0xac, 0x25, 0x2a, 0x3e,
  0x5a, 0x7a, 0xee, 0x3d, 0x61, 0x28, 0x4a, 0x3e, 0x2c, 0x62, 0x29, 0xbe,
  0xa4, 0xe9, 0xc1, 0x3d, 0x5d, 0x8f, 0x56, 0x3e, 0xc2, 0xfe, 0x24, 0xbd,
  0x56, 0x28, 0xa7, 0x3d, 0xe9, 0xc0, 0x6d, 0xbe, 0x10, 0xb2, 0x78, 0xbe,
  0x32, 0x83, 0x29, 0xbe, 0x64, 0x73, 0x21, 0x3d, 0x2a, 0xc1, 0x45, 0x3e,
  0x89, 0x2d, 0xe1, 0xbe, 0x9d, 0x47, 0x05, 0x3e, 0x3c, 0x6d, 0x24, 0xbf,
  0x9b, 0x8b, 0x19, 0xbe, 0x50, 0xc3, 0xfe, 0xbd, 0x8c, 0x51, 0x81, 0xbc,
  0x5a, 0xfc, 0x7c, 0x3d, 0x34, 0xc4, 0xc5, 0xbd, 0xf9, 0xb8, 0x00, 0xbf,
  0x9a, 0x50, 0xf3, 0xbe, 0x4c, 0x93, 0x22, 0xbe, 0x80, 0x19, 0x3c, 0xbe,
  0xb8, 0x26, 0x14, 0xbf, 0x39, 0x39, 0xa6, 0xbe, 0x06, 0x81, 0x4e, 0xbe,
  0xd6, 0x56, 0x95, 0xbe, 0x97, 0xa5, 0x05, 0xbf, 0x16, 0x95, 0x54, 0xbd,
  0x0d, 0x42, 0x37, 0xbe, 0xcb, 0xf1, 0x39, 0xbe, 0x01, 0x92, 0x6a, 0x3e,
  0xa8, 0x87, 0x06, 0xbd, 0xba, 0xbd, 0x80, 0x3e, 0x60, 0x72, 0x82, 0x3e,
  0x8b, 0x70, 0x4d, 0xbe, 0xb6, 0xbc, 0xe7, 0x3d, 0xfb, 0xde, 0xff, 0xbd,
  0x1c, 0xdc, 0xb9, 0x3d, 0x3d, 0xd6, 0x39, 0xbd, 0x1c, 0x97, 0x47, 0x3e,
  0xf0, 0x45, 0x7c, 0xbd, 0x29, 0x3b, 0x9c, 0xbc, 0xa4, 0x09, 0x2b, 0xbe,
  0x16, 0x9e, 0xc9, 0x3c, 0x7c, 0x96, 0x8e, 0x3a, 0x51, 0xf6, 0x0c, 0xbe,
  0x78, 0x5a, 0x94, 0xbc, 0xdc, 0x63, 0x6d, 0x3e, 0x4c, 0x25, 0xa5, 0xbd,
  0x0b, 0x91, 0xe0, 0x3d, 0xdf, 0x63, 0xa8, 0xbd, 0x95, 0xac, 0xe4, 0x3d,
  0x4e, 0x99, 0xea, 0xbd, 0x3b, 0x26, 0xa2, 0xbe, 0x86, 0x77, 0x8d, 0xbe,
  0x09, 0xe3, 0x94, 0x3e, 0x10, 0x0e, 0x96, 0x3e, 0x98, 0xef, 0x0f, 0x3e,
  0x6f, 0x1e, 0xf5, 0x3e, 0x29, 0x32, 0x0a, 0xbd, 0x16, 0x51, 0xde, 0x3d,
  0xb9, 0xd5, 0xc5, 0xbe, 0x92, 0xed, 0x92, 0xbe, 0x3e, 0x8b, 0x1a, 0xbd,
  0x60, 0x97, 0x54, 0xbe, 0x87, 0xd5, 0x85, 0xbe, 0x1f, 0x95, 0xb1, 0x3e,
  0xf1, 0x9c, 0xbc, 0xbb, 0x4a, 0x96, 0x61, 0x3c, 0xc5, 0xd9, 0x74, 0xbe,
  0x8b, 0xe9, 0x0d, 0xbd, 0x20, 0xe6, 0x01, 0xbc, 0x40, 0x8c, 0xf1, 0xbe,
  0x2f, 0x2c, 0x21, 0x3d, 0x8f, 0xb2, 0x2a, 0x3c, 0x12, 0xa4, 0xa4, 0xbd,
  0x3a, 0x0b, 0x0f, 0x3e, 0x46, 0xd3, 0xd0, 0x3d, 0x0f, 0xe2, 0x7b, 0x3e,
  0x38, 0x90, 0x1b, 0xbe, 0x52, 0x8c, 0xd0, 0xbe, 0xdf, 0x7c, 0x31, 0xbc,
  0x34, 0x72, 0x77, 0x3e, 0x78, 0xad, 0x6a, 0xbc, 0x6d, 0xc1, 0xcb, 0xbe,
  0x1d, 0xf7, 0x29, 0xba, 0xaa, 0x29, 0x86, 0xbd, 0xe6, 0x10, 0xda, 0x3d,
  0x66, 0x1e, 0x77, 0xbe, 0x21, 0xd0, 0xbd, 0xbd, 0x61, 0x83, 0xaa, 0x3d,
  0x75, 0x3c, 0x21, 0xbe, 0x75, 0xb7, 0x0a, 0x3f, 0xc4, 0x59, 0x3a, 0x3b,
  0x3b, 0xde, 0xf0, 0xbd, 0x0c, 0x53, 0xd3, 0xbd, 0x78, 0x49, 0x81, 0xbd,
  0x61, 0x4b, 0x62, 0xbe, 0xd1, 0xa7, 0x8a, 0x3e, 0x0e, 0xab, 0xae, 0xbd,
  0xa7, 0x38, 0xc7, 0xbd, 0x34, 0xea, 0x33, 0xbd, 0x21, 0xde, 0xea, 0xbd,
  0x9c, 0x7f, 0x22, 0xbb, 0x59, 0xa5, 0x85, 0xbd, 0xea, 0x87, 0xd8, 0x3e,
  0xdd, 0x8a, 0x80, 0x3e, 0x1d, 0xc2, 0xa7, 0x3c, 0x5e, 0x70, 0xc0, 0xbd,
  0x75, 0xae, 0x26, 0xbf, 0x75, 0xaf, 0x17, 0xbf, 0xf6, 0x39, 0x5d, 0xbe,
  0xd9, 0x8e, 0xc9, 0x3c, 0xdd, 0x9f, 0x0a, 0xbe, 0x7e, 0x3e, 0xe5, 0xbe,
  0xae, 0x5c, 0xae, 0x3e, 0x25, 0x80, 0xb3, 0xbd, 0x81, 0x34, 0xf9, 0x3c,
  0xc4, 0x48, 0x3b, 0x3e, 0x05, 0x12, 0x80, 0x3e, 0xdc, 0x4d, 0xa2, 0x3d,
  0xc9, 0xf3, 0x3d, 0x3e, 0x37, 0xcd, 0xc3, 0x3d, 0x5c, 0x2f, 0x8b, 0xbe,
  0x7b, 0x74, 0x80, 0xbe, 0x25, 0xd1, 0x25, 0xbc, 0x81, 0x93, 0x86, 0x3e,
  0x44, 0x98, 0xc0, 0xbe, 0x13, 0x0a, 0x6b, 0x3e, 0x98, 0x08, 0x1e, 0xbe,
  0xd6, 0x31, 0x3f, 0xbe, 0xd8, 0x80, 0xed, 0xbe, 0x99, 0xf8, 0x72, 0xbd,
  0xd5, 0x40, 0x3c, 0x3e, 0x1b, 0xfa, 0x95, 0xbd, 0xee, 0x2e, 0x2f, 0xbf,
  0xfb, 0xd6, 0x5c, 0x3d, 0xe7, 0x97, 0xda, 0x3d, 0x25, 0xb3, 0xf3, 0x3c,
  0x55, 0x5e, 0x03, 0xbf, 0xe5, 0xee, 0xfd, 0xbd, 0x3e, 0xd8, 0x6e, 0x3e,
  0xbd, 0x2c, 0x90, 0xbe, 0x18, 0x00, 0x04, 0xbf, 0xec, 0x60, 0x03, 0x3d,
  0x78, 0xf3, 0x8a, 0xbd, 0x87, 0x47, 0x41, 0xbe, 0x77, 0x92, 0x93, 0xbd,
  0x7b, 0xfc, 0x1b, 0x3f, 0x80, 0xa2, 0xae, 0xbd, 0x5e, 0xbd, 0x3b, 0xbd,
  0xb2, 0xc8, 0x83, 0x3e, 0x64, 0x54, 0x89, 0xbd, 0x4f, 0x45, 0x05, 0x3d,
  0x59, 0x55, 0x83, 0x3e, 0x41, 0x19, 0x1d, 0xbd, 0xfa, 0xc4, 0x8a, 0x3d,
  0x3a, 0x71, 0x30, 0xbf, 0x9d, 0x77, 0x95, 0xbe, 0x1c, 0x5c, 0x8f, 0xbe,
  0x4a, 0xab, 0x37, 0xbd, 0x3c, 0x23, 0x26, 0x3e, 0x36, 0xf9, 0x57, 0xbe,
  0x6e, 0x94, 0x92, 0xbc, 0xf4, 0x3f, 0x35, 0xbe, 0x98, 0xb6, 0xcf, 0xbe,
  0x06, 0xe9, 0x12, 0xbf, 0xd5, 0x01, 0x65, 0x3d, 0xf7, 0xb9, 0x57, 0x3c,
  0x79, 0x52, 0x1e, 0x3e, 0x49, 0x7d, 0x6d, 0x3c, 0xed, 0x86, 0xe1, 0x3b,
  0xb6, 0x9c, 0xb6, 0xbe, 0x63, 0x75, 0xa8, 0xbe, 0xce, 0x3f, 0x5c, 0x3d,
  0x95, 0x70, 0xd1, 0xbd, 0xd9, 0x63, 0x2c, 0x3e, 0xf6, 0xc4, 0x30, 0x3e,
  0x4f, 0x9b, 0x0b, 0xbe, 0x19, 0x74, 0x04, 0xbe, 0x32, 0x34, 0x34, 0xbe,
  0x99, 0x31, 0x8c, 0xbc, 0x01, 0xd1, 0xc4, 0xbc, 0x34, 0x00, 0x90, 0xbe,
  0xa2, 0x70, 0x9e, 0xbe, 0xd3, 0x50, 0xee, 0xbe, 0x95, 0x27, 0x06, 0xbd,
  0x43, 0xdf, 0x69, 0xbe, 0xed, 0xa5, 0x6d, 0x3e, 0xef, 0x66, 0xe4, 0x3e,
  0x0a, 0x3d, 0x90, 0xbd, 0x41, 0xe8, 0x0f, 0x3f, 0x13, 0x29, 0x84, 0xbe,
  0x36, 0x11, 0xbd, 0xbe, 0x94, 0xdb, 0x79, 0x3e, 0x59, 0xe5, 0x27, 0xbe,
  0x1d, 0x7a, 0xab, 0x3e, 0xbb, 0x64, 0x22, 0xbe, 0x16, 0x76, 0x0b, 0xbe,
  0x07, 0x58, 0x57, 0xbe, 0x9e, 0x86, 0x84, 0x3b, 0x78, 0x8a, 0x0e, 0x3e,
  0x2a, 0x54, 0x2d, 0xbe, 0x12, 0x0c, 0x1a, 0xbd, 0xa0, 0xd3, 0xe3, 0x3c,
  0x2d, 0x3c, 0x63, 0xbd, 0xcc, 0x49, 0x3c, 0xbe, 0x09, 0x44, 0x13, 0xbd,
  0x70, 0x29, 0xf6, 0xbd, 0x93, 0xde, 0x25, 0x3e, 0x56, 0x25, 0x86, 0x3c,
  0x78, 0xe8, 0x4b, 0xbe, 0x80, 0x23, 0x21, 0x3e, 0x75, 0x51, 0xc7, 0xbd,
  0x77, 0xb5, 0x5f, 0xbe, 0x78, 0xdc, 0x6e, 0x3e, 0xdc, 0x41, 0x1b, 0x3e,
  0xbc, 0x59, 0x3d, 0xbe, 0x6d, 0xbf, 0x13, 0xbe, 0x3a, 0xbe, 0x44, 0x3e,
  0x34, 0x4a, 0x82, 0x3d, 0x2f, 0x15, 0x0e, 0x3d, 0x0c, 0x27, 0x53, 0xbd,
  0xb3, 0x33, 0xab, 0x3d, 0xe2, 0x00, 0x9a, 0xbd, 0x61, 0x0d, 0x1d, 0xbe,
  0x17, 0x49, 0x74, 0x3e, 0x5a, 0x04, 0x57, 0xbd, 0xfe, 0xb4, 0x06, 0x3e,
  0x78, 0x96, 0x5c, 0x3e, 0xe5, 0xdc, 0x1c, 0x3e, 0x1a, 0xac, 0x56, 0xbd,
  0xcc, 0xe4, 0x8a, 0xbd, 0x72, 0x00, 0x4b, 0x3e, 0xa8, 0x28, 0x02, 0x3f,
  0x7e, 0x01, 0xa3, 0xb8, 0x50, 0x09, 0x0d, 0x3e, 0xaa, 0xc4, 0xa7, 0xbd,
  0x44, 0xe0, 0xbb, 0x3b, 0x1f, 0xf3, 0x50, 0x3e, 0x21, 0xf8, 0x34, 0x3e,
  0x3e, 0x38, 0xd4, 0x3e, 0x75, 0x3d, 0xc8, 0x3e, 0xf7, 0x1b, 0x47, 0xbe,
  0xd9, 0x65, 0x21, 0x3e, 0x08, 0x12, 0x4b, 0xbd, 0xb4, 0x8d, 0xa1, 0xbd,
  0xa6, 0x6b, 0x48, 0xbd, 0x4b, 0x4c, 0xd8, 0xbe, 0xf7, 0x3e, 0x9e, 0xbe,
  0x4b, 0x85, 0x92, 0xbd, 0x84, 0xd4, 0xb0, 0xbe, 0xf5, 0xda, 0x8e, 0x3e,
  0x36, 0x9f, 0x92, 0x3e, 0xad, 0x9d, 0xf4, 0xbd, 0xfa, 0xfa, 0xc7, 0x3e,
  0xc1, 0xb2, 0x0e, 0xbf, 0x9c, 0x4c, 0x2b, 0xbf, 0x1a, 0x39, 0x5b, 0x3e,
  0xc9, 0x26, 0x65, 0xbe, 0xe2, 0x2c, 0xb0, 0xbd, 0xed, 0x2d, 0xea, 0x3d,
  0x0f, 0x74, 0x46, 0xbd, 0x16, 0x84, 0x17, 0xbe, 0x8d, 0x3b, 0x50, 0xbe,
  0x05, 0xdb, 0xc7, 0x3e, 0x34, 0x26, 0x46, 0x3e, 0xc2, 0x0d, 0x1f, 0xbe,
  0x26, 0xe9, 0xe8, 0x3d, 0xed, 0x38, 0xac, 0xbe, 0x69, 0xdb, 0xa7, 0xbe,
  0xcc, 0x96, 0x64, 0xbe, 0xf5, 0xd9, 0xeb, 0x3d, 0x6f, 0x68, 0x91, 0x3e,
  0x07, 0x41, 0x96, 0xbe, 0x47, 0x7d, 0x17, 0xbe, 0x62, 0xab, 0xc3, 0xbe,
  0x47, 0x13, 0x09, 0x3e, 0x82, 0x0f, 0x0e, 0x3d, 0xa0, 0xfe, 0x4a, 0x3d,
  0x6d, 0x18, 0x68, 0xbe, 0x89, 0xab, 0xcf, 0x3c, 0x97, 0x83, 0x93, 0x3e,
  0xf5, 0xb8, 0x80, 0xbd, 0xce, 0xa2, 0xa7, 0x3d, 0x43, 0xd6, 0xa3, 0xbe,
  0xc6, 0xb5, 0x82, 0xbd, 0x6c, 0xcc, 0xaf, 0xbd, 0x17, 0x1f, 0xfa, 0xbd,
  0xd7, 0x7a, 0x85, 0x3d, 0xe4, 0x07, 0xa0, 0x3c, 0x1c, 0xf4, 0x12, 0xbe,
  0x00, 0x51, 0x96, 0xbb, 0xd5, 0xdf, 0x8d, 0xbe, 0xb4, 0x3c, 0xfa, 0xbd,
  0xd8, 0xf9, 0xa2, 0xbd, 0x66, 0x6c, 0x3b, 0xbe, 0x9b, 0xcd, 0xa6, 0x3d,
  0xb2, 0x94, 0xe6, 0x3c, 0x99, 0xba, 0xa5, 0x3d, 0xf7, 0xe2, 0x9b, 0xbe,
  0x6b, 0x69, 0xcd, 0xbd, 0xe0, 0x89, 0xae, 0xbe, 0x7b, 0x94, 0x36, 0xbe,
  0x09, 0x2c, 0x73, 0xbd, 0x99, 0x1b, 0xbf, 0xbc, 0xf0, 0xd7, 0xe1, 0xb9,
  0x4e, 0xa3, 0x00, 0x3e, 0xa4, 0xdc, 0x82, 0xbe, 0xfd, 0x38, 0xd0, 0xbe,
  0xd4, 0x9e, 0x9d, 0xbe, 0xa7, 0x57, 0x6f, 0x3e, 0x98, 0x8b, 0x57, 0x3e,
  0x61, 0xfc, 0x68, 0x3d, 0x2e, 0xa0, 0x44, 0xbe, 0x4c, 0xae, 0xc9, 0xbc,
  0x37, 0x8f, 0x2c, 0xbf, 0x53, 0x35, 0x25, 0xbf, 0x50, 0xc9, 0x26, 0xbf,
  0xea, 0x93, 0xdd, 0xbd, 0xb1, 0x27, 0x14, 0x3e, 0x47, 0x1e, 0xbc, 0x3d,
  0x25, 0x2b, 0x74, 0x3e, 0xf9, 0x3b, 0x13, 0x3e, 0x12, 0x85, 0xee, 0x3c,
  0x34, 0x87, 0xa3, 0xbe, 0x60, 0x23, 0xac, 0xbe, 0xe8, 0xef, 0xab, 0x3c,
  0xa0, 0x34, 0x3a, 0xbd, 0x41, 0xfe, 0xf7, 0x3d, 0x27, 0x7b, 0x81, 0x3e,
  0x9d, 0x72, 0xb3, 0xbd, 0xca, 0x62, 0x80, 0x3e, 0xce, 0xd3, 0xc6, 0xbd,
  0x8c, 0xf5, 0x94, 0xbc, 0xfb, 0x93, 0xa9, 0xbd, 0x5b, 0xc1, 0x46, 0xbe,
  0xe9, 0x4e, 0x87, 0xbe, 0xc7, 0x9e, 0x81, 0x3e, 0x97, 0x00, 0xc0, 0xbd,
  0x38, 0x71, 0x80, 0x3d, 0xc2, 0x90, 0x16, 0xbb, 0x82, 0x24, 0x35, 0x3d,
  0x2f, 0x94, 0x2f, 0xbe, 0x30, 0xe6, 0x7b, 0xbe, 0x09, 0x70, 0xca, 0xbd,
  0xb2, 0x15, 0x32, 0x3e, 0xfc, 0x56, 0x41, 0xba, 0x87, 0x4a, 0xa6, 0x3d,
  0x4e, 0xec, 0x14, 0x3d, 0x44, 0x1e, 0x5e, 0xbd, 0x5a, 0xce, 0x0c, 0xbd,
  0x7e, 0xfb, 0xfa, 0xbd, 0x2b, 0x59, 0x06, 0x3e, 0x61, 0xd4, 0x1a, 0xbe,
  0x42, 0x46, 0xfb, 0x3d, 0x5b, 0x96, 0xcf, 0xbe, 0x46, 0x7f, 0x72, 0xbe,
  0x91, 0x87, 0x1e, 0xbe, 0x97, 0x01, 0xed, 0xbc, 0xa6, 0x0a, 0x77, 0x3e,
  0x30, 0x70, 0xc9, 0x3e, 0xf9, 0x43, 0xb5, 0x3e, 0x0e, 0x84, 0x3a, 0x3d,
  0x74, 0x2f, 0x82, 0xbd, 0x65, 0xf9, 0x2e, 0xbe, 0x5b, 0x60, 0x90, 0xbe,
  0x8c, 0x61, 0x16, 0xbc, 0x72, 0x93, 0xf8, 0xbc, 0x6b, 0x31, 0x9f, 0xbe,
  0x38, 0x37, 0xa4, 0x3e, 0x75, 0x79, 0x72, 0xbe, 0xb2, 0x8f, 0x99, 0x3d,
  0xaf, 0x93, 0x9c, 0x3e, 0x07, 0x89, 0x61, 0x3e, 0x5d, 0x61, 0xda, 0xbe,
  0x1e, 0xab, 0x53, 0x3e, 0x82, 0xd8, 0x09, 0x3e, 0xae, 0xfa, 0x75, 0x3c,
  0x01, 0x75, 0xc8, 0xbe, 0x4e, 0xaf, 0x66, 0xbe, 0x7f, 0xf7, 0x87, 0x3e,
  0x77, 0x77, 0x2f, 0xbe, 0x1a, 0x39, 0x1c, 0xbf, 0x2c, 0x5c, 0x47, 0xbd,
  0x67, 0x0d, 0x24, 0xbe, 0xf8, 0x98, 0xc2, 0xbe, 0x2e, 0x04, 0xad, 0xbe,
  0x5e, 0xeb, 0xa3, 0xbe, 0x47, 0xf8, 0x12, 0xbe, 0x00, 0x34, 0x7d, 0xbe,
  0x39, 0x30, 0x4d, 0x3e, 0xfc, 0x55, 0xa7, 0x3d, 0x81, 0x28, 0x08, 0xbe,
  0x60, 0x6d, 0xfb, 0xbd, 0x55, 0xe4, 0x08, 0xbb, 0xfc, 0xbc, 0xdc, 0x3e,
  0x5c, 0xbf, 0x2e, 0x3e, 0x13, 0xb2, 0x66, 0xbd, 0x35, 0xed, 0xbe, 0x3e,
  0x62, 0xc2, 0x8c, 0x3d, 0xc5, 0xba, 0xad, 0xbd, 0x03, 0x15, 0x0a, 0x3e,
  0x0a, 0xdf, 0xff, 0xff, 0x10, 0x00, 0x00, 0x00, 0x08, 0x00, 0x00, 0x00,
  0x1c, 0x00, 0x00, 0x00, 0x38, 0x00, 0x00, 0x00, 0x04, 0x00, 0x00, 0x00,
  0x10, 0x00, 0x00, 0x00, 0x04, 0x00, 0x00, 0x00, 0x01, 0x00, 0x00, 0x00,
  0x08, 0x00, 0x00, 0x00, 0x1a, 0x00, 0x00, 0x00, 0x73, 0x65, 0x71, 0x75,
  0x65, 0x6e, 0x74, 0x69, 0x61, 0x6c, 0x2f, 0x63, 0x6f, 0x6e, 0x76, 0x32,
  0x64, 0x5f, 0x31, 0x2f, 0x43, 0x6f, 0x6e, 0x76, 0x32, 0x44, 0x00, 0x00,
  0x04, 0xdf, 0xff, 0xff, 0xfa, 0xdf, 0xff, 0xff, 0x04, 0x00, 0x00, 0x00,
  0x80, 0x01, 0x00, 0x00, 0xd8, 0xe1, 0x20, 0xbe, 0xb5, 0xbd, 0x1c, 0x3e,
  0x07, 0xca, 0xcc, 0x3d, 0x43, 0x88, 0x11, 0xbe, 0xc0, 0x95, 0x58, 0x3c,
  0x28, 0xf7, 0x2a, 0x3d, 0xb7, 0xa6, 0x02, 0x3c, 0x30, 0x3d, 0x09, 0x3e,
  0x8d, 0x4a, 0xff, 0xbd, 0x12, 0x2e, 0x5d, 0xbd, 0x80, 0xc4, 0x0d, 0x3e,
  0x8c, 0x72, 0xe0, 0xba, 0x3b, 0x98, 0xb8, 0x3e, 0x57, 0xaf, 0x37, 0x3d,
  0xc1, 0x0c, 0x27, 0xbd, 0xd1, 0xe5, 0x18, 0x3f, 0x16, 0xd7, 0x6f, 0x3e,
  0xf3, 0x73, 0x83, 0x3c, 0xcc, 0x5b, 0x39, 0x3e, 0x82, 0x30, 0x13, 0x3e,
  0xa0, 0xb7, 0xcc, 0x3d, 0xad, 0x33, 0x25, 0xbe, 0x76, 0x80, 0x76, 0x3e,
  0x3a, 0xf2, 0x7a, 0xba, 0xa3, 0x70, 0x5b, 0x3e, 0x92, 0xc6, 0xf9, 0xbd,
  0xdc, 0x8f, 0x94, 0xbe, 0xe1, 0xe0, 0x95, 0x3d, 0xca, 0x37, 0x44, 0x3e,
  0x1e, 0x84, 0xc3, 0x3c, 0x53, 0x35, 0x8e, 0x3e, 0x2b, 0xd9, 0x85, 0x3e,
  0xe2, 0xed, 0x27, 0xbe, 0x7a, 0x66, 0xfe, 0x3e, 0xe7, 0x3d, 0x93, 0x3d,
  0x2b, 0xad, 0x17, 0x3e, 0x1e, 0x78, 0x94, 0x3e, 0xcd, 0xa1, 0x0b, 0xbe,
  0x94, 0xca, 0x8e, 0x3e, 0x49, 0x14, 0x07, 0x3e, 0x13, 0xa5, 0x8c, 0xbd,
  0x82, 0xe8, 0x7b, 0x3e, 0xa2, 0x0d, 0x8a, 0x3d, 0xc4, 0x98, 0x8d, 0x3d,
  0x94, 0xb3, 0xc4, 0x3d, 0x53, 0x4a, 0x82, 0x3e, 0xf2, 0x02, 0x83, 0x3d,
  0xb6, 0xa6, 0x4b, 0xbe, 0xa3, 0xb7, 0x60, 0xbe, 0x00, 0x71, 0x1b, 0xbe,
  0x3e, 0xc8, 0xc9, 0x3d, 0x41, 0x28, 0x3b, 0x3e, 0xca, 0xc2, 0xa3, 0xbd,
  0xd6, 0xaa, 0x33, 0xbe, 0x6e, 0x84, 0xd3, 0xbd, 0xef, 0x95, 0x5a, 0x3e,
  0x70, 0x86, 0xa2, 0x3e, 0x3a, 0x59, 0xc6, 0x3d, 0xfd, 0x03, 0xca, 0x3e,
  0x7a, 0xe8, 0x90, 0x3e, 0x3e, 0xe2, 0x4a, 0x3b, 0x94, 0xcb, 0x9c, 0x3e,
  0xa8, 0x4e, 0xc7, 0xbe, 0x94, 0x03, 0xb2, 0xbd, 0x5e, 0x01, 0xbb, 0xbd,
  0x90, 0x3e, 0xba, 0x3d, 0xcb, 0x2b, 0x4d, 0x3c, 0xaa, 0xc1, 0x43, 0xbe,
  0xaa, 0xc1, 0xf7, 0x3c, 0x17, 0x09, 0x02, 0x3d, 0x22, 0x68, 0x9d, 0xbd,
  0x6c, 0x53, 0xd7, 0x3d, 0x54, 0xe1, 0xec, 0x3e, 0x35, 0xb1, 0x87, 0x3d,
  0x98, 0x0c, 0x22, 0x3e, 0xb6, 0x93, 0xa6, 0xbd, 0x67, 0x23, 0xce, 0x3d,
  0xaf, 0xd2, 0x44, 0x3d, 0x01, 0x39, 0xbe, 0xbe, 0x48, 0x1c, 0xc9, 0xbd,
  0x5f, 0x73, 0x00, 0xbe, 0x79, 0x91, 0xb1, 0x3c, 0xb4, 0x79, 0x55, 0x3d,
  0xf9, 0x22, 0x50, 0x3c, 0x04, 0x19, 0xd9, 0xbe, 0x5b, 0x2a, 0xaa, 0x3d,
  0xe5, 0x45, 0xc6, 0xbc, 0x17, 0xed, 0x14, 0xbe, 0xaf, 0x13, 0xe0, 0xba,
  0x99, 0x7d, 0xe9, 0x3d, 0xed, 0x3f, 0xda, 0x3e, 0x54, 0xe1, 0xab, 0xbd,
  0x46, 0x1f, 0x3f, 0xbe, 0xbc, 0x3c, 0xe5, 0x3e, 0x74, 0xf6, 0x74, 0x3e,
  0x84, 0xfa, 0xa9, 0x3d, 0xe2, 0xe0, 0xff, 0xff, 0x10, 0x00, 0x00, 0x00,
  0x07, 0x00, 0x00, 0x00, 0x1c, 0x00, 0x00, 0x00, 0x38, 0x00, 0x00, 0x00,
  0x04, 0x00, 0x00, 0x00, 0x08, 0x00, 0x00, 0x00, 0x04, 0x00, 0x00, 0x00,
  0x03, 0x00, 0x00, 0x00, 0x01, 0x00, 0x00, 0x00, 0x18, 0x00, 0x00, 0x00,
  0x73, 0x65, 0x71, 0x75, 0x65, 0x6e, 0x74, 0x69, 0x61, 0x6c, 0x2f, 0x63,
  0x6f, 0x6e, 0x76, 0x32, 0x64, 0x2f, 0x43, 0x6f, 0x6e, 0x76, 0x32, 0x44,
  0x00, 0x00, 0x00, 0x00, 0xdc, 0xe0, 0xff, 0xff, 0xd2, 0xe1, 0xff, 0xff,
  0x04, 0x00, 0x00, 0x00, 0xc0, 0x00, 0x00, 0x00, 0x13, 0xb5, 0xc0, 0x3e,
  0x5a, 0x70, 0x91, 0x3e, 0x9b, 0x51, 0x9f, 0xbe, 0x0e, 0x67, 0x2e, 0xbd,
  0xa8, 0x81, 0x88, 0xbe, 0xd5, 0xa0, 0x54, 0x3e, 0x4d, 0xba, 0x96, 0xbc,
  0x6e, 0x6a, 0x92, 0x3e, 0x21, 0x48, 0x13, 0x3e, 0x15, 0x9e, 0x84, 0x3e,
  0x51, 0xb6, 0x37, 0xbe, 0xe8, 0xbc, 0x76, 0x3c, 0x5b, 0x60, 0x9d, 0x3d,
  0xe6, 0xcd, 0xc9, 0x3e, 0xdc, 0xf7, 0x3a, 0xbd, 0xc1, 0x7e, 0x67, 0xbe,
  0x10, 0x09, 0xec, 0x3e, 0x99, 0xc5, 0xf7, 0xbe, 0x3d, 0xc7, 0xa9, 0xbe,
  0xc7, 0xea, 0xb6, 0xbd, 0x2d, 0x1f, 0x58, 0xbe, 0x2d, 0xdc, 0xfa, 0x3d,
  0x0e, 0x0d, 0x03, 0x3c, 0x43, 0x90, 0xd3, 0x3d, 0xc1, 0x6d, 0x22, 0x3e,
  0x04, 0x01, 0x9f, 0x3e, 0x65, 0xd5, 0x9e, 0xbd, 0x75, 0x3b, 0xa6, 0x3a,
  0x18, 0xb2, 0x99, 0x3d, 0xe8, 0x99, 0xc3, 0x3e, 0x3d, 0x47, 0x4e, 0xbe,
  0x49, 0x55, 0xa4, 0xbc, 0x1f, 0xa0, 0xa5, 0x3e, 0xee, 0xc3, 0xdf, 0x3e,
  0xc2, 0x9b, 0x1a, 0xbe, 0x80, 0x47, 0x5f, 0xbd, 0xcf, 0xfc, 0x98, 0xbe,
  0x2a, 0xa2, 0xca, 0xbe, 0xa1, 0xdf, 0x8b, 0x3d, 0xa5, 0xf3, 0x87, 0x3e,
  0x22, 0x56, 0x83, 0x3e, 0x71, 0xe6, 0x73, 0x3e, 0x6f, 0x1f, 0xb4, 0xbd,
  0x2c, 0x97, 0x87, 0xbd, 0x8f, 0x7e, 0x23, 0x3e, 0x00, 0xb8, 0x82, 0xbe,
  0xf6, 0xd8, 0xee, 0xbe, 0x15, 0x49, 0x64, 0xbe, 0xfa, 0xe1, 0xff, 0xff,
  0x10, 0x00, 0x00, 0x00, 0x06, 0x00, 0x00, 0x00, 0x14, 0x00, 0x00, 0x00,
  0x30, 0x00, 0x00, 0x00, 0x02, 0x00, 0x00, 0x00, 0x03, 0x00, 0x00, 0x00,
  0x10, 0x00, 0x00, 0x00, 0x19, 0x00, 0x00, 0x00, 0x73, 0x65, 0x71, 0x75,
  0x65, 0x6e, 0x74, 0x69, 0x61, 0x6c, 0x2f, 0x64, 0x65, 0x6e, 0x73, 0x65,
  0x5f, 0x31, 0x2f, 0x4d, 0x61, 0x74, 0x4d, 0x75, 0x6c, 0x00, 0x00, 0x00,
  0xec, 0xe1, 0xff, 0xff, 0xe2, 0xe2, 0xff, 0xff, 0x04, 0x00, 0x00, 0x00,
  0x00, 0x1c, 0x00, 0x00, 0x79, 0x37, 0x43, 0xbe, 0x45, 0x8a, 0x4a, 0x3d,
  0xb5, 0xe6, 0x44, 0x3d, 0x63, 0x2d, 0x87, 0x3e, 0x9e, 0x6b, 0x99, 0xbe,
  0x90, 0xc9, 0x6d, 0xbc, 0x2e, 0xed, 0x62, 0x3e, 0xa4, 0x20, 0x5a, 0xbe,
  0x20, 0x2b, 0x7c, 0x3e, 0xdb, 0xd9, 0x95, 0x3e, 0x71, 0xf4, 0x7b, 0xbd,
  0x9f, 0x58, 0xcb, 0x3e, 0xfb, 0xb8, 0x12, 0x3f, 0xb5, 0x49, 0x4d, 0xbe,
  0x62, 0xf5, 0x4f, 0xbd, 0x71, 0x11, 0x51, 0x3d, 0xd2, 0xf3, 0xbe, 0x3d,
  0x6c, 0xe3, 0xf0, 0x3d, 0x0c, 0x47, 0x41, 0xbc, 0x0c, 0x33, 0x1f, 0xbe,
  0x91, 0xc5, 0x84, 0x3d, 0xcc, 0x2c, 0xa4, 0xbd, 0x2c, 0x27, 0xb6, 0x3e,
  0xd5, 0x62, 0x56, 0xbe, 0x9e, 0x55, 0x9c, 0x3e, 0x5c, 0x30, 0xe3, 0x3c,
  0xb7, 0xc3, 0xdb, 0xbd, 0x44, 0x48, 0x7e, 0x3e, 0xf1, 0xeb, 0xcb, 0x3d,
  0x9f, 0xfc, 0x79, 0xbc, 0xa5, 0xc0, 0x0e, 0xbe, 0x39, 0x04, 0xb5, 0xbe,
  0x0a, 0x9b, 0x36, 0xbc, 0xe7, 0xf7, 0x21, 0xbe, 0x51, 0xdd, 0xc1, 0x3a,
  0xf6, 0xb4, 0x08, 0xbf, 0x1a, 0xf1, 0x18, 0x3e, 0x12, 0xfe, 0xd3, 0xbe,
  0x2b, 0x90, 0xc5, 0x3d, 0x7d, 0x69, 0xa3, 0xbd, 0xc1, 0xf5, 0xbd, 0xbc,
  0x43, 0x83, 0x29, 0xbe, 0x80, 0x03, 0x2f, 0xbe, 0xf5, 0xc8, 0xd0, 0x3c,
  0xf7, 0xc6, 0xc9, 0xbd, 0x24, 0xcd, 0x27, 0x3d, 0x48, 0x21, 0x97, 0x3d,
  0x93, 0xa7, 0xd8, 0xbe, 0x89, 0x0e, 0xd5, 0xbc, 0xc6, 0x5c, 0x2b, 0xbe,
  0x9f, 0xc7, 0x00, 0xbc, 0x47, 0x42, 0x08, 0xbf, 0x9b, 0xf7, 0x40, 0x3d,
  0x65, 0xa8, 0xe0, 0xbe, 0x26, 0x69, 0xb8, 0x3d, 0xc4, 0x7c, 0x91, 0xbe,
  0x7b, 0xea, 0x95, 0x3c, 0x4a, 0x0f, 0x21, 0xbe, 0x5c, 0x21, 0xb6, 0xbd,
  0xe7, 0x27, 0x1e, 0xbe, 0xfa, 0x8b, 0x9c, 0xbd, 0x59, 0xbe, 0x97, 0x3e,
  0x9d, 0xd5, 0x66, 0xbe, 0xb0, 0xab, 0xa8, 0x3c, 0xfd, 0x56, 0x7c, 0x3d,
  0x11, 0xc0, 0xe0, 0x3d, 0xa3, 0xe5, 0x0e, 0x3d, 0x99, 0xd5, 0x65, 0xbe,
  0x49, 0x4c, 0xc9, 0x3d, 0xf6, 0xd4, 0x83, 0xbe, 0x84, 0xf0, 0x5f, 0x3e,
  0xb7, 0xa4, 0x32, 0xbc, 0x6f, 0x5a, 0x6a, 0xbe, 0xe7, 0xe8, 0x47, 0x3e,
  0xa1, 0xe2, 0x53, 0xbc, 0x3e, 0x15, 0x33, 0x3e, 0x7e, 0xe1, 0x1f, 0xbc,
  0xfa, 0x41, 0x1b, 0x3e, 0x44, 0x70, 0x8f, 0x3c, 0xdf, 0xbd, 0xa3, 0x3e,
  0x39, 0x7b, 0xa4, 0xbd, 0x0c, 0x91, 0xcd, 0xbd, 0xe3, 0xda, 0x14, 0xbe,
  0x59, 0x6f, 0x62, 0x3e, 0x6d, 0xf5, 0x12, 0x3e, 0xe9, 0xc9, 0x45, 0xbd,
  0x5f, 0x7a, 0x6e, 0x3e, 0x2c, 0x81, 0xce, 0xbe, 0x04, 0xd7, 0xa1, 0x3e,
  0xdc, 0xb6, 0x4b, 0x3e, 0xe6, 0xf7, 0xaf, 0xbd, 0x0f, 0x78, 0xbc, 0x3e,
  0xfc, 0x13, 0x01, 0x3e, 0x6b, 0x15, 0xf2, 0xbc, 0x2f, 0xa2, 0xbd, 0x3d,
  0x87, 0xf9, 0x32, 0xbd, 0xb9, 0xc6, 0x61, 0xbd, 0x21, 0x24, 0xf7, 0xba,
  0x11, 0x9e, 0x82, 0xbd, 0xd6, 0xc1, 0x99, 0xbc, 0x7f, 0x79, 0xd3, 0xbb,
  0xdd, 0x77, 0x10, 0x3d, 0x9f, 0xd0, 0xe2, 0xbd, 0xf8, 0x4b, 0xa2, 0xbd,
  0x17, 0xa2, 0x4d, 0xbd, 0x36, 0x01, 0x1b, 0xbe, 0x44, 0x1f, 0xb9, 0xbc,
  0x88, 0x1d, 0x29, 0xbe, 0x85, 0x9b, 0xb3, 0xbd, 0xb6, 0x6c, 0x00, 0x3e,
  0xf0, 0xbb, 0x50, 0xbd, 0x6a, 0xc6, 0xda, 0xbd, 0x3a, 0x71, 0x48, 0xbe,
  0xb4, 0xbe, 0xac, 0xbd, 0x51, 0xc8, 0xd9, 0x3c, 0x68, 0xaa, 0x8d, 0x3d,
  0xe4, 0x18, 0x34, 0x3e, 0xcc, 0x56, 0x98, 0x3d, 0x89, 0x4d, 0x01, 0xbb,
  0x19, 0xef, 0x90, 0x3e, 0x73, 0x83, 0x84, 0xbe, 0xcc, 0x3b, 0xa7, 0xbd,
  0xb2, 0xc2, 0x58, 0xbe, 0x37, 0x94, 0x09, 0xbe, 0xf7, 0xda, 0x50, 0x3e,
  0xdd, 0x47, 0x39, 0xbd, 0x81, 0xc5, 0x0a, 0xbe, 0x84, 0x53, 0x4b, 0x3d,
  0xe2, 0x6c, 0xe0, 0x3d, 0xd8, 0xc4, 0x04, 0x3e, 0x52, 0x5a, 0xb8, 0x3d,
  0x7a, 0xf2, 0x22, 0x3d, 0xc7, 0x60, 0xf0, 0xbd, 0x2f, 0x90, 0x40, 0x3b,
  0x3a, 0xe6, 0xd7, 0x3d, 0x71, 0x55, 0x59, 0x3e, 0x84, 0x54, 0x9b, 0xbd,
  0x5d, 0x2f, 0xdf, 0x3d, 0x59, 0xed, 0x42, 0xbe, 0x92, 0x76, 0x47, 0xbc,
  0xc7, 0x35, 0xa0, 0x3e, 0x50, 0x8e, 0x81, 0x3e, 0x57, 0xa3, 0xa5, 0x3d,
  0xca, 0xee, 0x76, 0x3e, 0x36, 0xc4, 0x85, 0x3c, 0xd3, 0xca, 0x7a, 0x3e,
  0xed, 0x1c, 0xdb, 0x3d, 0xde, 0xcc, 0x5d, 0xbe, 0xe6, 0x5d, 0x48, 0x3d,
  0xe2, 0xb9, 0x26, 0xbe, 0x0f, 0x79, 0xf8, 0x3d, 0x46, 0xa7, 0xc8, 0x3d,
  0x75, 0xd6, 0x1e, 0x3e, 0xa6, 0xe7, 0xf0, 0x3d, 0x29, 0xda, 0x3e, 0xbe,
  0x40, 0x53, 0xb2, 0x3d, 0xef, 0x84, 0x96, 0x3e, 0xdb, 0x23, 0x12, 0xbe,
  0x22, 0xc5, 0x7d, 0x3c, 0x7a, 0xb7, 0xb6, 0x3e, 0x33, 0xd6, 0xb3, 0xbb,
  0x58, 0xc7, 0xc2, 0xbb, 0x6a, 0x17, 0x65, 0x3e, 0x2b, 0xc8, 0x68, 0xbe,
  0xee, 0x75, 0x37, 0x3d, 0xe6, 0x6c, 0x1f, 0x3e, 0x56, 0xc0, 0x0d, 0x3c,
  0xe1, 0x6b, 0x9d, 0x3e, 0xfb, 0xfa, 0xcf, 0xbd, 0xac, 0xcb, 0xed, 0xbc,
  0xa6, 0xed, 0xc1, 0xbd, 0xd2, 0x21, 0x0b, 0xbe, 0x41, 0x31, 0x89, 0x3e,
  0x66, 0xda, 0x0a, 0x3e, 0x6b, 0x09, 0x23, 0xbc, 0x47, 0xd1, 0x8d, 0x3e,
  0xc5, 0x1b, 0x89, 0xbd, 0x45, 0xda, 0x18, 0xbe, 0xc6, 0x7a, 0xe2, 0xbd,
  0xc0, 0x20, 0x0b, 0xbe, 0xde, 0x5d, 0x25, 0xbe, 0x8d, 0xd2, 0x4a, 0xbe,
  0x97, 0x78, 0xcf, 0xbd, 0x07, 0xd8, 0x4e, 0x3e, 0x69, 0xf8, 0x1d, 0x3d,
  0xf5, 0xc2, 0x11, 0xbe, 0xdf, 0xb0, 0x20, 0xbe, 0x25, 0x90, 0xbd, 0xbd,
  0x65, 0x3b, 0x6c, 0x3e, 0xc2, 0xa9, 0xba, 0x3d, 0xab, 0xb9, 0xc6, 0x3d,
  0xe3, 0x43, 0x07, 0x3e, 0x3a, 0x36, 0xa1, 0xbd, 0x69, 0x92, 0x42, 0x3d,
  0xe9, 0x83, 0xa0, 0xbc, 0xc6, 0xd6, 0xaa, 0xbc, 0x81, 0x91, 0xe0, 0x3d,
  0xba, 0x0d, 0xcf, 0xbd, 0x4c, 0x19, 0x32, 0xbe, 0xc3, 0x03, 0xcc, 0x3e,
  0x11, 0xbe, 0x11, 0x3d, 0xa5, 0xfa, 0x88, 0x3d, 0xfe, 0x0a, 0x83, 0xbd,
  0x98, 0x44, 0x92, 0xbd, 0x9d, 0x50, 0x7d, 0x3e, 0xb7, 0x06, 0x42, 0x3e,
  0x02, 0x3f, 0x16, 0xbd, 0xeb, 0x44, 0x2b, 0x3e, 0x14, 0x87, 0x41, 0xbe,
  0x35, 0x3d, 0x84, 0xbd, 0x0c, 0x63, 0x56, 0xbd, 0xd3, 0x9d, 0x5e, 0xbd,
  0x06, 0x7e, 0xd6, 0x3d, 0x9f, 0xbd, 0x10, 0xbe, 0x65, 0x16, 0xc8, 0xbd,
  0x58, 0xce, 0x1e, 0xbe, 0x88, 0xde, 0x10, 0xbe, 0xbb, 0x6e, 0xb3, 0xbc,
  0xd1, 0x21, 0x06, 0xbe, 0x88, 0x49, 0x02, 0xbe, 0x88, 0x31, 0xcd, 0x3e,
  0xae, 0xe1, 0x0e, 0xbd, 0xa9, 0xb9, 0x91, 0xbe, 0xd8, 0xa8, 0x87, 0x3e,
  0x2d, 0x80, 0x2e, 0xbe, 0x8d, 0x91, 0xe3, 0xbd, 0x4c, 0x24, 0x75, 0xbd,
  0x0e, 0xd1, 0x10, 0xbe, 0xd5, 0x6b, 0x3d, 0xbe, 0xa2, 0xea, 0xac, 0xbd,
  0xd0, 0x97, 0x01, 0xbe, 0xdf, 0x90, 0x77, 0xbd, 0x37, 0x95, 0x32, 0x3e,
  0x4c, 0x48, 0x08, 0xbe, 0xd7, 0x2b, 0x61, 0xbe, 0xef, 0x31, 0x20, 0xbe,
  0xe3, 0x35, 0x12, 0x3e, 0xe9, 0x4b, 0x3f, 0xbe, 0x4f, 0x82, 0x20, 0xbe,
  0x4f, 0xe9, 0x4c, 0xbe, 0xfe, 0xcb, 0x8b, 0xbc, 0x85, 0x22, 0x86, 0xbd,
  0xda, 0x0d, 0x3d, 0xbe, 0x27, 0x98, 0x03, 0xbe, 0xb0, 0x51, 0xcc, 0x3d,
  0xa0, 0xaa, 0x5b, 0xbe, 0x17, 0xbc, 0x1f, 0xbe, 0x5d, 0x9a, 0x44, 0xbe,
  0x62, 0x5c, 0x29, 0x3e, 0x8a, 0xf6, 0x30, 0xbe, 0x4c, 0xfe, 0x87, 0x3c,
  0x78, 0xc6, 0xab, 0x3d, 0xe9, 0x57, 0x0b, 0xbe, 0x00, 0x38, 0x6f, 0xbd,
  0x36, 0xcf, 0x3d, 0x3e, 0x6c, 0x3a, 0xe0, 0xbd, 0x24, 0xc3, 0x4b, 0x3d,
  0xd5, 0x6e, 0xa3, 0x39, 0x04, 0x28, 0xd8, 0x3d, 0xac, 0xd6, 0xd9, 0xbd,
  0x21, 0x72, 0x9c, 0x3c, 0x1e, 0xce, 0x7f, 0x3c, 0x93, 0xad, 0x03, 0xbd,
  0x1a, 0x04, 0x30, 0x3d, 0x77, 0x28, 0x01, 0x3e, 0x8f, 0x2a, 0x64, 0xbd,
  0xf7, 0xed, 0x45, 0xbe, 0x7f, 0x09, 0xff, 0x3c, 0x35, 0xdb, 0x13, 0xbe,
  0x7a, 0x90, 0x8d, 0xbc, 0xb3, 0xf1, 0xb0, 0x3d, 0xa5, 0x56, 0x2b, 0x3d,
  0xe1, 0xd9, 0x62, 0xbe, 0x01, 0x28, 0x42, 0xbe, 0xd7, 0x39, 0xb9, 0x3c,
  0x96, 0x8d, 0xb7, 0xbd, 0x50, 0x0c, 0x57, 0x3e, 0xd3, 0xf2, 0xee, 0x3d,
  0x1a, 0x7a, 0x94, 0xbd, 0xef, 0xa8, 0x21, 0xbe, 0x61, 0x6b, 0xbd, 0x3b,
  0xc7, 0x35, 0xe1, 0x3d, 0xdd, 0xa1, 0x13, 0xbe, 0xa9, 0xff, 0xc2, 0x3c,
  0xf1, 0x26, 0x93, 0x3d, 0x9f, 0xc9, 0xb7, 0xbd, 0xd4, 0xff, 0xf5, 0x3c,
  0x33, 0x57, 0x26, 0xbe, 0xf4, 0x0e, 0xd7, 0x3b, 0xc1, 0x72, 0xf3, 0xbd,
  0xbf, 0xc1, 0xc2, 0xbd, 0x8b, 0x84, 0xf2, 0x3b, 0x02, 0xad, 0x21, 0xbd,
  0x4d, 0x18, 0xcb, 0xbd, 0x09, 0xe2, 0x6d, 0x3d, 0xcd, 0xdb, 0x91, 0x3c,
  0xa0, 0xa5, 0xc2, 0xbd, 0x6b, 0xf6, 0xb2, 0x3d, 0x92, 0xa3, 0x21, 0xbe,
  0xd8, 0x61, 0x4e, 0xbd, 0x12, 0xc6, 0xf4, 0x3c, 0x5a, 0x40, 0x45, 0xbe,
  0x80, 0x5f, 0xb9, 0xbd, 0x21, 0xa2, 0xa8, 0x3d, 0x96, 0xb5, 0x9a, 0x3c,
  0xa6, 0xea, 0x63, 0xbe, 0x80, 0xae, 0x4d, 0xbe, 0x71, 0xd4, 0x75, 0x3c,
  0xda, 0x41, 0x4e, 0xbd, 0x37, 0xd4, 0x3a, 0xbe, 0x88, 0x36, 0xbd, 0x3d,
  0x1c, 0xd2, 0x03, 0xbd, 0xbf, 0x09, 0x58, 0xbe, 0xf4, 0xe3, 0xff, 0x3c,
  0xeb, 0x25, 0x65, 0xbd, 0xe0, 0x67, 0x41, 0x3d, 0x71, 0x0c, 0x00, 0xbe,
  0x56, 0x24, 0xed, 0xbd, 0xf5, 0x9e, 0xb8, 0xbd, 0x95, 0xce, 0x0f, 0xbc,
  0x17, 0x58, 0xe6, 0xbc, 0x84, 0xe3, 0x22, 0xbe, 0x17, 0x42, 0x84, 0xbe,
  0xf2, 0x41, 0x95, 0xbe, 0xa1, 0x29, 0x0f, 0xbe, 0x6b, 0x57, 0x32, 0xbe,
  0x0f, 0xf0, 0xa1, 0x3c, 0xcc, 0x4a, 0x4e, 0xbc, 0x55, 0x49, 0x07, 0xbe,
  0x25, 0x89, 0x68, 0xbb, 0xdf, 0x8f, 0x04, 0xbd, 0xe5, 0x27, 0xa5, 0x3d,
  0xba, 0x61, 0x06, 0x3e, 0xae, 0x07, 0x1c, 0x3e, 0xdd, 0xe3, 0x51, 0xbe,
  0x38, 0x08, 0xd4, 0xbd, 0x14, 0x7f, 0x1c, 0xbd, 0xda, 0x1a, 0xde, 0xbe,
  0xc9, 0xb7, 0x00, 0x3e, 0xec, 0x5d, 0x90, 0xbe, 0xf7, 0xbf, 0x45, 0x3d,
  0x77, 0xa0, 0xba, 0x3e, 0xb9, 0x84, 0x05, 0xbe, 0xd3, 0xe7, 0x1b, 0xbe,
  0x2a, 0x84, 0x2b, 0xbe, 0xd0, 0xdc, 0xaf, 0xbe, 0x38, 0x54, 0x2c, 0xbe,
  0x57, 0x47, 0xbf, 0xbe, 0xe3, 0xe3, 0x48, 0x3d, 0xa5, 0xb6, 0x1b, 0x3f,
  0xb1, 0xdc, 0x18, 0x3e, 0xa0, 0x89, 0xb6, 0xbd, 0x9e, 0x17, 0x0b, 0x3d,
  0xf9, 0x26, 0xe6, 0x3d, 0x5c, 0xdc, 0x43, 0xbd, 0xf0, 0x21, 0x35, 0x3e,
  0xd9, 0xd3, 0xfd, 0xbc, 0x20, 0x10, 0xbc, 0x3e, 0x86, 0xeb, 0xe2, 0x3c,
  0xa8, 0xd9, 0x1e, 0xbe, 0x7c, 0xd4, 0x91, 0xbd, 0x1b, 0x9d, 0x8a, 0xbd,
  0x07, 0xc0, 0xf7, 0xbd, 0x2a, 0xcc, 0x9a, 0xbc, 0xf8, 0xb1, 0x0d, 0x3f,
  0x8d, 0x02, 0x72, 0x3e, 0xa2, 0xc5, 0x18, 0xbe, 0x64, 0xba, 0x89, 0xbe,
  0x0f, 0xe6, 0xd1, 0xbc, 0xc6, 0x96, 0x40, 0x3e, 0xb2, 0xf1, 0xeb, 0xbd,
  0xa7, 0xf7, 0x54, 0x3f, 0x97, 0xbd, 0x86, 0x3d, 0x23, 0x59, 0xbb, 0x3e,
  0xaf, 0x19, 0xe0, 0x3e, 0x62, 0xc4, 0x33, 0x3d, 0xda, 0xd3, 0x08, 0x3e,
  0x63, 0xd6, 0x7f, 0x3e, 0xb0, 0x5d, 0x47, 0x3d, 0x04, 0xad, 0xe9, 0x3d,
  0x3d, 0x08, 0xb7, 0x3f, 0x2e, 0x1d, 0xf2, 0x3c, 0x6d, 0x71, 0x01, 0x3f,
  0x8d, 0x4f, 0xd0, 0xbc, 0x05, 0x6e, 0xbb, 0xbd, 0xdd, 0x83, 0x2a, 0x3e,
  0x87, 0xda, 0xc4, 0x3d, 0xb4, 0x93, 0x63, 0x3f, 0x7c, 0xc5, 0x11, 0x3e,
  0x0a, 0x24, 0x88, 0xbd, 0xbd, 0xa6, 0x08, 0x3f, 0x1d, 0x7e, 0x18, 0xbe,
  0x4a, 0x39, 0x96, 0x3e, 0x76, 0xb9, 0xc7, 0x3c, 0xad, 0x24, 0x5c, 0xbc,
  0xf4, 0xf4, 0x8e, 0xbd, 0xf9, 0xe3, 0xdc, 0x3f, 0x71, 0xe0, 0x24, 0x3e,
  0x3e, 0xfb, 0x33, 0x3e, 0x2d, 0xf4, 0xfe, 0x3c, 0xe4, 0xc3, 0x36, 0xbd,
  0x0a, 0x99, 0x2b, 0xbc, 0xbb, 0x6c, 0x93, 0x3e, 0x89, 0x5e, 0x83, 0x3e,
  0x52, 0xbb, 0x49, 0x3d, 0x03, 0x5d, 0xb5, 0x3e, 0x83, 0xfc, 0xcc, 0x3e,
  0x49, 0xa3, 0x09, 0xbe, 0x1c, 0x83, 0x19, 0xbc, 0xea, 0x4a, 0x98, 0xbb,
  0x7b, 0x40, 0xfd, 0xbd, 0x75, 0xbf, 0x91, 0xbd, 0x20, 0x6a, 0x34, 0x3f,
  0xa6, 0xd0, 0xdf, 0x3e, 0x58, 0x39, 0x7f, 0x3e, 0x7c, 0x0f, 0xbf, 0xbd,
  0x67, 0x72, 0x23, 0xbc, 0xa5, 0x06, 0xe8, 0x3e, 0x94, 0x5d, 0xe0, 0xbd,
  0xaa, 0x2c, 0xb7, 0xbc, 0xee, 0x85, 0x45, 0x3e, 0x3d, 0xa0, 0x86, 0x3e,
  0x82, 0xfa, 0xbe, 0x3d, 0x34, 0x95, 0xb9, 0xbe, 0xb7, 0xdc, 0x87, 0xbe,
  0xbb, 0x4a, 0xcb, 0xbd, 0xc1, 0x8e, 0x90, 0x3c, 0xca, 0xf2, 0x8d, 0x3d,
  0x46, 0xa2, 0x9b, 0x3e, 0x3e, 0x18, 0xeb, 0x3e, 0x38, 0x90, 0x76, 0xbe,
  0x9b, 0x23, 0x61, 0xbe, 0x06, 0x29, 0x85, 0xbd, 0x44, 0xee, 0x0a, 0x3e,
  0x55, 0xa3, 0xb1, 0xbd, 0xc4, 0x0b, 0xfb, 0xbd, 0xce, 0x73, 0xee, 0xbd,
  0x92, 0x15, 0x9b, 0xbe, 0xc3, 0xde, 0x0d, 0xbe, 0x72, 0x36, 0x32, 0x3c,
  0x37, 0x81, 0x7c, 0xbd, 0x0e, 0xbe, 0x04, 0xbe, 0x85, 0x85, 0x76, 0xbd,
  0xb8, 0xa5, 0xe9, 0xbd, 0xf1, 0x23, 0xce, 0x3e, 0x58, 0xf6, 0x7b, 0xbe,
  0xd6, 0xee, 0xb1, 0x3d, 0xe2, 0x34, 0x86, 0xbe, 0x7a, 0xad, 0x8e, 0xbe,
  0x0a, 0x18, 0x3a, 0x3e, 0xfb, 0x4d, 0x9d, 0xbd, 0x27, 0x35, 0x45, 0x3e,
  0x24, 0x62, 0xeb, 0xbe, 0xef, 0xfa, 0xc3, 0xbd, 0x63, 0x28, 0x82, 0x3e,
  0xdf, 0x13, 0xab, 0xbe, 0x29, 0x52, 0xd2, 0x3e, 0x79, 0x9b, 0x36, 0x3e,
  0x55, 0x16, 0x2c, 0x3d, 0x37, 0xcb, 0x9e, 0x3e, 0xab, 0x5f, 0x0e, 0x3f,
  0x42, 0xf1, 0x0a, 0xbf, 0xf8, 0x3c, 0xd2, 0xbc, 0xcc, 0xd3, 0x1d, 0xbe,
  0xe8, 0xd7, 0xb8, 0x3d, 0xc1, 0xb0, 0xa0, 0x3c, 0x65, 0x43, 0x63, 0xbd,
  0xd3, 0xc4, 0x29, 0x3e, 0x68, 0x03, 0xde, 0xbd, 0x33, 0x79, 0x85, 0xbd,
  0x4e, 0x73, 0x43, 0x3e, 0x09, 0x43, 0xbe, 0xbe, 0x41, 0x6e, 0x14, 0x3e,
  0xd0, 0xd8, 0xd0, 0x3e, 0x17, 0x4f, 0x97, 0x3d, 0xfb, 0x3d, 0x39, 0x3e,
  0x48, 0xc3, 0xcc, 0x3e, 0xbd, 0x0f, 0x46, 0x3e, 0x6a, 0x4a, 0xd2, 0x3d,
  0xcd, 0x79, 0x2d, 0xbe, 0x6b, 0xa3, 0x5d, 0x3b, 0x8c, 0xa6, 0xa8, 0xbe,
  0x8b, 0x62, 0xdc, 0xbd, 0x14, 0x2d, 0x3a, 0xbe, 0xb0, 0x1c, 0xc0, 0xbc,
  0xa2, 0xc6, 0x62, 0xbe, 0xe6, 0xdd, 0x8f, 0x3e, 0xf1, 0x6d, 0xec, 0xbd,
  0x5b, 0x2e, 0x49, 0xba, 0xe9, 0x35, 0x77, 0xbd, 0xb0, 0x9a, 0x77, 0xbd,
  0x8f, 0x53, 0xc0, 0x3c, 0xf4, 0xae, 0x4e, 0xbc, 0x47, 0xce, 0x66, 0x3d,
  0xca, 0xf5, 0x13, 0xbd, 0xc8, 0x0e, 0x68, 0xbe, 0x2a, 0x91, 0x3d, 0xbe,
  0xa9, 0x06, 0x38, 0xbe, 0x6f, 0x67, 0x21, 0xbe, 0xf7, 0x9e, 0xe1, 0xbe,
  0x99, 0x4b, 0x22, 0xbc, 0xeb, 0x9b, 0x6c, 0xbe, 0x09, 0xb9, 0x0b, 0xbe,
  0x08, 0xd1, 0x91, 0xbe, 0x52, 0x54, 0x8f, 0xbe, 0x45, 0x96, 0x84, 0xbd,
  0x9d, 0xa4, 0x00, 0xbd, 0x5b, 0x60, 0xcc, 0xbd, 0xe8, 0x3c, 0x46, 0xbe,
  0xeb, 0xe1, 0x00, 0x3e, 0x27, 0x93, 0xd8, 0xbd, 0xb9, 0x83, 0xd7, 0x3d,
  0x22, 0x15, 0x94, 0xbd, 0x7b, 0x1c, 0x49, 0x3d, 0x1c, 0xc1, 0xb0, 0xbd,
  0x04, 0x6c, 0xe1, 0xbd, 0x8e, 0x8c, 0x1a, 0x3d, 0x54, 0xa0, 0xe4, 0xbd,
  0xd0, 0xe0, 0xbb, 0x3e, 0x37, 0xed, 0x7a, 0xbe, 0x72, 0x18, 0x31, 0x3d,
  0x0a, 0x82, 0x06, 0x3e, 0x2c, 0xfb, 0x79, 0xbc, 0x3c, 0x78, 0x8b, 0x3e,
  0xae, 0xb2, 0x99, 0x3d, 0x7b, 0x62, 0x08, 0xbe, 0x93, 0x9a, 0x23, 0xbe,
  0xbd, 0x2e, 0x9e, 0x3e, 0x2e, 0xc3, 0x88, 0xbd, 0x76, 0x4b, 0x0e, 0x3c,
  0x1e, 0x66, 0x3d, 0xbe, 0xe2, 0xe7, 0x56, 0x3e, 0xfc, 0xcb, 0xcf, 0xbd,
  0x30, 0x45, 0x15, 0xbe, 0x3d, 0x6e, 0x8a, 0x3e, 0x14, 0xe9, 0xa5, 0xbe,
  0x55, 0x25, 0x77, 0x3e, 0xae, 0xb1, 0x12, 0x3e, 0x2e, 0x10, 0x25, 0x3c,
  0xf0, 0x31, 0x67, 0x3e, 0xfa, 0x92, 0xcb, 0x3e, 0x4a, 0xfb, 0xa8, 0xbd,
  0xff, 0x6f, 0x17, 0xbe, 0xb8, 0xa0, 0x67, 0x3e, 0x1c, 0x9a, 0xb2, 0xbd,
  0x3f, 0xe0, 0x34, 0xbd, 0xd2, 0x28, 0xdd, 0xbd, 0xb6, 0xec, 0xb6, 0x3d,
  0x8c, 0xb0, 0x8b, 0xbe, 0xdc, 0x95, 0x6d, 0xbd, 0x31, 0x43, 0xf3, 0x3d,
  0x7e, 0xa7, 0x2b, 0x3d, 0x1c, 0x27, 0x56, 0x3e, 0x49, 0x7d, 0x2a, 0xbd,
  0x0d, 0x32, 0x84, 0x3d, 0x82, 0xbc, 0x19, 0x3e, 0x29, 0xae, 0xb4, 0x3e,
  0x93, 0x44, 0xd7, 0xbc, 0x8f, 0x5c, 0x57, 0x3d, 0x15, 0x0a, 0x97, 0xbd,
  0xe8, 0xfe, 0x1e, 0xbe, 0xec, 0x48, 0x69, 0xbe, 0xf3, 0x09, 0x95, 0xbe,
  0x00, 0x41, 0xba, 0xbd, 0x6f, 0x2d, 0x02, 0xbe, 0x1f, 0xe2, 0x13, 0x3e,
  0x3b, 0x86, 0xf4, 0xbc, 0x67, 0xad, 0x7f, 0x3d, 0x0d, 0x70, 0x27, 0xbe,
  0xa1, 0x77, 0x6e, 0xbe, 0xa0, 0xa0, 0x4f, 0xbe, 0x46, 0x24, 0xa6, 0xbd,
  0x8d, 0xb5, 0xa9, 0x3f, 0x4c, 0x15, 0x1e, 0x3d, 0xde, 0xf6, 0x66, 0xbe,
  0xf4, 0x64, 0xb3, 0x3e, 0x98, 0x0e, 0xa3, 0xbd, 0xf8, 0x91, 0xbd, 0xbd,
  0xbf, 0x9d, 0xcf, 0xbd, 0xcc, 0x70, 0x9d, 0xbe, 0x1f, 0xd3, 0x0c, 0xbd,
  0xf9, 0xef, 0x82, 0xbb, 0x48, 0x41, 0xa0, 0xbc, 0xdd, 0x85, 0x1c, 0x3e,
  0x81, 0xbc, 0x4a, 0xbb, 0x56, 0x87, 0xd7, 0xbc, 0xe9, 0xd5, 0x86, 0xbe,
  0x88, 0x65, 0xb0, 0xbd, 0xf8, 0x64, 0x38, 0x3f, 0xf1, 0x44, 0xe7, 0xbd,
  0x82, 0xfc, 0xbb, 0x3d, 0x38, 0x66, 0x0c, 0xbd, 0x21, 0x68, 0x9c, 0xbe,
  0x1c, 0x3f, 0x7b, 0xbd, 0x5d, 0x67, 0xf3, 0xbd, 0xfb, 0xe1, 0xba, 0xbd,
  0x8c, 0x3c, 0x1a, 0x3e, 0xbe, 0x75, 0xee, 0xbd, 0x51, 0x8e, 0xc1, 0xbd,
  0x71, 0xab, 0x5b, 0x3e, 0x15, 0x9a, 0x55, 0xbe, 0x71, 0xf6, 0x42, 0x3b,
  0x5b, 0x05, 0xae, 0xbe, 0x4b, 0x92, 0x5d, 0xbe, 0x39, 0xe7, 0x0b, 0x40,
  0x44, 0xbd, 0xfa, 0x3c, 0xac, 0x3c, 0xc6, 0x3d, 0x8d, 0x1c, 0x8b, 0xbe,
  0x42, 0x54, 0x84, 0xbe, 0xb3, 0x07, 0x38, 0x3d, 0xc7, 0x16, 0x6f, 0x3d,
  0x52, 0xf6, 0x28, 0xbe, 0x26, 0x70, 0x53, 0xbe, 0xbe, 0xf1, 0x0c, 0x3d,
  0x71, 0xc2, 0x7c, 0x3d, 0x59, 0x57, 0xdc, 0xbd, 0xc7, 0x2f, 0xf4, 0xbc,
  0x59, 0x35, 0x1c, 0x3e, 0xe0, 0x66, 0x14, 0xbe, 0xd2, 0xb5, 0xfb, 0x3d,
  0x05, 0x6d, 0x0e, 0x40, 0xe6, 0x1c, 0x85, 0xbe, 0x75, 0xe7, 0x09, 0xbe,
  0xe1, 0x8c, 0x3b, 0xbe, 0x6d, 0x4f, 0x20, 0xbe, 0xe0, 0x9a, 0x87, 0xbe,
  0x7b, 0xd8, 0x83, 0xbe, 0xdb, 0x4a, 0x9d, 0xbd, 0xe5, 0x3b, 0xcd, 0x3d,
  0x2e, 0x1c, 0x61, 0x3d, 0xe4, 0xeb, 0x62, 0xbe, 0x5a, 0xfd, 0xb7, 0x3e,
  0xd6, 0x41, 0x2f, 0xbe, 0xe2, 0x71, 0x84, 0x3d, 0x07, 0x9b, 0x02, 0xbf,
  0x48, 0x11, 0xba, 0x3d, 0xf8, 0x4a, 0x00, 0x40, 0x9b, 0x2d, 0xd4, 0x3d,
  0xd5, 0x9b, 0x63, 0xba, 0x22, 0xe0, 0x15, 0x3d, 0xde, 0x1d, 0xe6, 0xbc,
  0xe1, 0xef, 0xcc, 0xbb, 0xd9, 0xcc, 0x63, 0xbe, 0x96, 0x70, 0xf8, 0xbd,
  0x99, 0xfb, 0x9f, 0x3c, 0x66, 0xce, 0x1c, 0x3d, 0x7c, 0xc4, 0xc0, 0x3d,
  0x09, 0xd4, 0x88, 0x3d, 0x11, 0x9b, 0x57, 0xbe, 0xd8, 0x2b, 0x30, 0xbe,
  0x31, 0xd1, 0xda, 0xbd, 0x59, 0xc2, 0x1a, 0xbe, 0x9c, 0x59, 0xd5, 0x3f,
  0x47, 0x94, 0x01, 0xbe, 0xfa, 0x5c, 0xc5, 0x3c, 0x17, 0x7d, 0x17, 0xbe,
  0x0e, 0x59, 0x84, 0xbe, 0x76, 0xb3, 0xa8, 0xbb, 0x7c, 0x8a, 0x92, 0xbe,
  0x5f, 0xcb, 0x04, 0xbe, 0xb2, 0x67, 0x1c, 0x3e, 0xfb, 0xa8, 0x7d, 0xbe,
  0x53, 0x9c, 0x1c, 0xbe, 0xf0, 0x1c, 0x50, 0xbe, 0x19, 0x0f, 0x20, 0x3c,
  0x7f, 0x5e, 0xad, 0xbe, 0x69, 0x23, 0xbe, 0xbe, 0xe9, 0x2a, 0x02, 0x3e,
  0x56, 0x25, 0x39, 0x3f, 0x66, 0x91, 0x9f, 0xbb, 0x55, 0x36, 0x9c, 0xbe,
  0x63, 0xbc, 0xe6, 0xbd, 0x0c, 0xf5, 0xd3, 0x3d, 0x70, 0xee, 0xf5, 0x3d,
  0xab, 0x27, 0x7d, 0xbe, 0x7b, 0xbc, 0xb6, 0xbd, 0xe0, 0x25, 0xbb, 0x3d,
  0xc0, 0x17, 0x83, 0xbe, 0xaa, 0x4a, 0x77, 0xbe, 0xac, 0xe9, 0xca, 0x3e,
  0x35, 0xce, 0xc7, 0xbd, 0xb0, 0xb9, 0x8f, 0xbe, 0x84, 0xec, 0xea, 0x3c,
  0x7c, 0x58, 0x27, 0xbe, 0x08, 0xea, 0x87, 0xbe, 0x6b, 0x32, 0xdb, 0xbe,
  0xb0, 0xbb, 0x45, 0xbe, 0x50, 0xcd, 0x1b, 0x3e, 0xc6, 0x0c, 0x3e, 0x3d,
  0x95, 0x10, 0xd8, 0xbd, 0x39, 0xe5, 0xf1, 0xbe, 0x28, 0x6e, 0xaa, 0xbd,
  0x27, 0x31, 0x71, 0x3e, 0x43, 0x24, 0x26, 0xbf, 0x2a, 0x55, 0x1f, 0xbe,
  0x10, 0xf9, 0x9f, 0x3e, 0x47, 0x4f, 0x8a, 0xbe, 0xcb, 0x47, 0xcd, 0xbd,
  0xa3, 0x92, 0x5a, 0x3d, 0x2b, 0x69, 0xb8, 0xbe, 0x62, 0xe9, 0x45, 0xbf,
  0x05, 0xb5, 0xfb, 0xbe, 0x5e, 0x6f, 0x59, 0x3e, 0x90, 0x86, 0x1c, 0x3f,
  0x87, 0x39, 0xbf, 0x3c, 0xb9, 0x2a, 0xaa, 0xbe, 0x2f, 0x60, 0x89, 0xbe,
  0x2c, 0x07, 0xfc, 0xbd, 0xef, 0x4b, 0x87, 0x3e, 0x89, 0xa6, 0xdb, 0xbe,
  0x14, 0xad, 0x2c, 0xbe, 0x13, 0x8a, 0x80, 0x3c, 0x7f, 0xb4, 0x4f, 0x3d,
  0x7d, 0x31, 0x0f, 0xbd, 0xc9, 0xe8, 0x94, 0x3d, 0x3f, 0xbf, 0x06, 0xbe,
  0x06, 0x6c, 0x9e, 0xbe, 0xea, 0x01, 0x92, 0xbe, 0x06, 0xe9, 0x3f, 0x3d,
  0xdf, 0xc0, 0xad, 0x3e, 0x50, 0x77, 0x31, 0xbc, 0xa3, 0xb1, 0xf5, 0xbd,
  0x07, 0x9f, 0x34, 0xbe, 0x76, 0x0c, 0x15, 0xbd, 0xd6, 0xf0, 0xd8, 0xbd,
  0x0f, 0x83, 0x92, 0xbe, 0x1c, 0xc2, 0x7b, 0xbe, 0xa7, 0x25, 0x28, 0x3e,
  0x0c, 0x1d, 0x30, 0xbd, 0x88, 0xab, 0x0f, 0xbe, 0x22, 0x13, 0xcc, 0x3d,
  0x52, 0xf3, 0x4b, 0xbe, 0xde, 0xe6, 0x53, 0xbf, 0x44, 0x7a, 0x50, 0xbe,
  0xad, 0xf2, 0x12, 0xbd, 0xcc, 0xa0, 0x4d, 0xbd, 0x46, 0x52, 0x70, 0x3d,
  0x89, 0xaf, 0xb4, 0x3d, 0xfd, 0x2b, 0x9c, 0xbe, 0xf2, 0x64, 0xa9, 0x3d,
  0x30, 0xc3, 0x46, 0x3c, 0xc5, 0x4f, 0xb3, 0xbe, 0x2c, 0xd9, 0xc3, 0xbe,
  0x2e, 0x55, 0x9b, 0x3e, 0x8d, 0xf9, 0x9c, 0xbc, 0x7d, 0xe1, 0x4b, 0xbe,
  0xd0, 0xa3, 0x64, 0xbd, 0x1c, 0x00, 0x56, 0x3c, 0x4f, 0xc2, 0x8d, 0xbe,
  0x6c, 0xfa, 0xc9, 0xbe, 0x42, 0x58, 0x90, 0xbc, 0x3d, 0xc1, 0x6d, 0x3e,
  0xbc, 0xc6, 0x91, 0x3d, 0x5d, 0xce, 0x7c, 0xbe, 0xdc, 0x76, 0x88, 0xbe,
  0x6e, 0x97, 0x46, 0xbd, 0x58, 0x23, 0x2f, 0x3e, 0x94, 0xf0, 0xb9, 0xbe,
  0xab, 0x3a, 0x8c, 0xbe, 0xfc, 0xa0, 0x2a, 0x3f, 0x19, 0x46, 0xd7, 0x3d,
  0x46, 0xa1, 0x14, 0xbe, 0xed, 0xfb, 0xda, 0x3b, 0x86, 0x51, 0x45, 0xbe,
  0x20, 0x06, 0x4b, 0xbe, 0x3a, 0xa3, 0x7d, 0xbe, 0x9b, 0xd3, 0x8f, 0xbd,
  0x2c, 0xf3, 0xd7, 0x3e, 0xd5, 0x0c, 0x70, 0x3c, 0x51, 0xb6, 0x1a, 0xbe,
  0x09, 0x36, 0xdf, 0xbd, 0x9a, 0x36, 0x2f, 0xbe, 0x4b, 0xb1, 0x8a, 0x3e,
  0x6a, 0xb2, 0xe0, 0xbe, 0xd6, 0x26, 0xf8, 0xbe, 0x8c, 0x82, 0x57, 0x3c,
  0xaa, 0x59, 0x27, 0xbe, 0xcd, 0x03, 0xcd, 0xbd, 0xb4, 0x3e, 0x6d, 0xbd,
  0x9c, 0x38, 0x73, 0xbe, 0x35, 0x54, 0x30, 0xbe, 0x7e, 0x8c, 0xb7, 0xbe,
  0x3c, 0x7b, 0x77, 0xbe, 0x8e, 0xda, 0x4e, 0x3e, 0x6a, 0x3f, 0x24, 0xbe,
  0xef, 0x50, 0xbf, 0xbd, 0x22, 0xd3, 0x73, 0x3d, 0x57, 0x60, 0x58, 0xbc,
  0xc7, 0x31, 0x16, 0x3e, 0x47, 0x10, 0xab, 0x3d, 0xdb, 0x79, 0xb5, 0xbd,
  0xa2, 0x8b, 0x8f, 0xbc, 0xf6, 0xaa, 0xea, 0x3d, 0xe7, 0xf3, 0x47, 0xbe,
  0xc9, 0x96, 0xda, 0xbe, 0x42, 0x65, 0x5b, 0x3d, 0xa7, 0x6a, 0x97, 0xbd,
  0xc9, 0xef, 0x18, 0x3e, 0x05, 0x27, 0xcd, 0x3d, 0x89, 0x4f, 0x49, 0x3e,
  0x65, 0x5d, 0xd0, 0xbb, 0x26, 0xbd, 0xe8, 0xbd, 0xbe, 0xeb, 0x92, 0xbd,
  0x1e, 0x3a, 0x81, 0xbc, 0xf3, 0xbf, 0xe7, 0x3c, 0x84, 0xe5, 0x2f, 0xbe,
  0x49, 0x8c, 0x71, 0x3d, 0xc1, 0x10, 0xcb, 0x3c, 0x90, 0xf8, 0xaf, 0xbd,
  0xf6, 0x26, 0x6f, 0xbd, 0xda, 0xde, 0x93, 0xbe, 0xbd, 0x6c, 0xd2, 0x3d,
  0x02, 0xdd, 0xc8, 0x38, 0x80, 0x91, 0xc3, 0x3c, 0xec, 0xde, 0x10, 0x3e,
  0x9c, 0x51, 0x53, 0x3d, 0xc9, 0x2a, 0x64, 0xbe, 0xb0, 0x76, 0x31, 0xbe,
  0x40, 0x35, 0xd9, 0xbc, 0x25, 0x80, 0x0a, 0xbe, 0xe2, 0x7d, 0xd4, 0x3e,
  0xab, 0xa2, 0xcb, 0x3d, 0xd0, 0xbb, 0xad, 0xbd, 0xd0, 0x84, 0xfb, 0xb8,
  0x63, 0x70, 0x8e, 0xbe, 0xb3, 0x7e, 0x4c, 0xbe, 0xa7, 0x06, 0xe2, 0xbd,
  0xb0, 0xa1, 0x8e, 0x3b, 0x14, 0x87, 0xae, 0x3d, 0x82, 0xf2, 0x0c, 0x3e,
  0x72, 0xa5, 0x43, 0x3e, 0x43, 0xe6, 0xf7, 0xbd, 0x7e, 0x8b, 0x04, 0x3d,
  0x00, 0x2c, 0x71, 0x3c, 0xe5, 0x03, 0x42, 0x3e, 0x29, 0x02, 0x1d, 0xbe,
  0xa7, 0x61, 0xb7, 0x3e, 0x94, 0xd0, 0x23, 0xbd, 0x60, 0xf3, 0x39, 0x3c,
  0x43, 0x65, 0xd9, 0x3d, 0x03, 0x35, 0x18, 0xbe, 0x3d, 0xd6, 0xab, 0x3d,
  0x65, 0x5f, 0xc5, 0xbe, 0xb5, 0x87, 0x01, 0xbd, 0x6b, 0x2d, 0x50, 0xbe,
  0x13, 0x95, 0x69, 0xbc, 0x59, 0xb2, 0xe3, 0x3d, 0xe3, 0x3f, 0x53, 0x3d,
  0x0b, 0xb7, 0x45, 0xbe, 0x86, 0xe5, 0xa0, 0xbe, 0x20, 0x5c, 0x31, 0xbe,
  0x1b, 0xb5, 0x46, 0xbd, 0xe0, 0x98, 0x01, 0x3e, 0xa7, 0x53, 0x25, 0xbe,
  0x55, 0x8a, 0xcc, 0x3e, 0xd7, 0x3a, 0x6c, 0x3d, 0xd5, 0x36, 0x01, 0xbd,
  0xd2, 0xbb, 0x33, 0xbd, 0x2d, 0x78, 0x8c, 0xbd, 0x8f, 0xdd, 0x5f, 0xbe,
  0x9c, 0x59, 0x4f, 0xbe, 0x0b, 0x37, 0x2f, 0xbe, 0x9b, 0x1b, 0x53, 0x3e,
  0xb8, 0xfb, 0x77, 0x3c, 0x00, 0x0d, 0xa0, 0x3c, 0xee, 0x0e, 0x13, 0xbe,
  0xe5, 0x4d, 0x11, 0x3e, 0x87, 0xfb, 0xc7, 0xbc, 0x52, 0xeb, 0x9e, 0x3e,
  0xdd, 0x47, 0x7b, 0x3e, 0x26, 0xba, 0x81, 0x3e, 0x9f, 0x1d, 0xb8, 0xbc,
  0x89, 0xfc, 0x17, 0xbe, 0x55, 0x76, 0x91, 0xbd, 0x68, 0x7e, 0x62, 0xbe,
  0x9e, 0x61, 0x69, 0xbe, 0x87, 0x8b, 0x0b, 0x3e, 0xaa, 0xf8, 0x5b, 0x3e,
  0xa6, 0x6e, 0xe8, 0x3d, 0x7e, 0x8c, 0x80, 0xbe, 0xf2, 0xa1, 0xa1, 0xbe,
  0x37, 0xeb, 0x24, 0x3e, 0xf4, 0x4d, 0xe9, 0xbd, 0x9a, 0x6e, 0x3d, 0xbb,
  0x53, 0xe7, 0x42, 0x3d, 0xe6, 0xf8, 0x81, 0x39, 0x85, 0x6f, 0xa6, 0xbd,
  0xab, 0x6c, 0xe3, 0xbc, 0xaa, 0xd3, 0x53, 0x3d, 0x9a, 0x66, 0x14, 0xbe,
  0xbf, 0x61, 0xac, 0xbc, 0x12, 0x9e, 0x05, 0x3d, 0xef, 0x89, 0x6c, 0x3e,
  0x92, 0x77, 0x6d, 0x3d, 0x8b, 0xb2, 0x9e, 0xbc, 0x50, 0x94, 0xbb, 0xbd,
  0xd0, 0x14, 0xc3, 0x3c, 0xab, 0xfd, 0x4c, 0x3e, 0x65, 0xeb, 0x2d, 0xbe,
  0x07, 0xbe, 0xbe, 0xbd, 0xc4, 0xe4, 0x30, 0x3d, 0x16, 0x16, 0x8a, 0xbd,
  0x4a, 0x8b, 0xaa, 0xbe, 0x25, 0x85, 0xca, 0x3e, 0x8a, 0x8c, 0x04, 0xbe,
  0xa5, 0x0a, 0x87, 0xbe, 0x3e, 0x04, 0x35, 0xbd, 0x6e, 0x54, 0xb0, 0xbd,
  0x19, 0xce, 0x47, 0xbe, 0x67, 0x87, 0xde, 0xbe, 0x93, 0xd6, 0x45, 0xbe,
  0x5a, 0xa9, 0x88, 0x3e, 0x56, 0x20, 0x69, 0x3a, 0x65, 0x23, 0x72, 0xbd,
  0x59, 0xbd, 0x8f, 0xbe, 0x25, 0xa6, 0xc4, 0xbb, 0xd1, 0x65, 0x4b, 0x3e,
  0x55, 0xdc, 0xf2, 0xbe, 0x4f, 0x87, 0x37, 0xbf, 0x0e, 0x92, 0xab, 0x3e,
  0x31, 0xfd, 0xb2, 0xbd, 0x8f, 0xf6, 0x26, 0x3e, 0xf8, 0x84, 0x21, 0xbc,
  0x4b, 0x9d, 0x5d, 0xbe, 0xf1, 0x54, 0x3b, 0xbf, 0x93, 0x55, 0xd0, 0xbe,
  0x3d, 0xac, 0x5b, 0x3e, 0xcb, 0x45, 0x0a, 0x3f, 0x80, 0x50, 0x67, 0x3c,
  0x4a, 0xf3, 0xad, 0xbe, 0x7e, 0x1b, 0x1b, 0xbe, 0xb7, 0xa8, 0x00, 0xbe,
  0x8c, 0x3d, 0xb6, 0x3d, 0x45, 0xa6, 0xb8, 0xbd, 0x85, 0x6f, 0xd8, 0xbe,
  0x33, 0x14, 0x90, 0x3e, 0x0b, 0xf6, 0xcf, 0x3c, 0x83, 0x9b, 0x00, 0xbe,
  0x7f, 0xff, 0xf1, 0x3c, 0x08, 0x9c, 0x82, 0xbd, 0xbe, 0xc9, 0xfb, 0xbe,
  0xbf, 0xac, 0xb3, 0xbe, 0x22, 0xfd, 0xd6, 0x3d, 0xd9, 0xa7, 0xd7, 0x3e,
  0x13, 0x17, 0x4f, 0x3c, 0x39, 0x47, 0x36, 0xbe, 0xd2, 0x10, 0x4b, 0xbe,
  0x23, 0xfa, 0x15, 0xbe, 0x3d, 0x6a, 0x23, 0x3e, 0xbf, 0x64, 0xde, 0xbd,
  0x0e, 0x3c, 0x10, 0xbf, 0x60, 0x57, 0xdc, 0x3d, 0xd8, 0xd6, 0x8a, 0x3d,
  0x3a, 0xd4, 0x7f, 0xbd, 0x33, 0x8b, 0x53, 0xbc, 0x45, 0x49, 0x54, 0xbe,
  0x31, 0xe2, 0x38, 0xbf, 0xbf, 0xcb, 0xa2, 0xbe, 0x34, 0x74, 0x70, 0xbd,
  0x02, 0xcb, 0x83, 0x3e, 0x95, 0x6b, 0x73, 0x3d, 0x48, 0x32, 0x04, 0xbd,
  0xc4, 0x95, 0x53, 0xbe, 0x73, 0xe3, 0x00, 0x3e, 0xdd, 0xdf, 0x88, 0x3e,
  0x0c, 0xaf, 0xab, 0xbe, 0xe6, 0xc5, 0xd0, 0xbe, 0xe5, 0x71, 0x34, 0x3e,
  0xb6, 0x2d, 0x8c, 0xbd, 0x54, 0x85, 0xaf, 0xbd, 0x01, 0x13, 0xcd, 0x3d,
  0x9d, 0xd1, 0x35, 0xbc, 0x7b, 0xa8, 0x1c, 0xbf, 0xc4, 0x42, 0xb8, 0xbe,
  0x29, 0xb5, 0x14, 0x3c, 0x02, 0x5a, 0x61, 0x3e, 0x21, 0xb6, 0x59, 0x3d,
  0x4e, 0xac, 0xca, 0xbe, 0xf0, 0xf7, 0x8f, 0xbd, 0x5f, 0x2e, 0x80, 0x3d,
  0x54, 0x11, 0x4a, 0x3e, 0x89, 0x45, 0x95, 0xbe, 0x4a, 0x81, 0xde, 0xbe,
  0xb8, 0x15, 0x10, 0x3f, 0x1c, 0xd2, 0xa6, 0x3c, 0x9e, 0xe6, 0x23, 0xbe,
  0x4b, 0x8c, 0xec, 0xbb, 0xeb, 0xe2, 0xc8, 0xbe, 0x13, 0x96, 0x7e, 0xbe,
  0x39, 0xea, 0x02, 0xbf, 0x61, 0xbc, 0x15, 0xbe, 0xac, 0xef, 0xb0, 0x3e,
  0xe4, 0x64, 0xcb, 0x3c, 0x6a, 0xa7, 0x92, 0xbe, 0xe7, 0x71, 0xb3, 0xbc,
  0xb0, 0x0a, 0x0f, 0xbe, 0xb0, 0x06, 0x83, 0x3e, 0x58, 0x12, 0xcd, 0xbe,
  0x6f, 0x4c, 0xf3, 0xbe, 0x34, 0x53, 0x4a, 0x3d, 0x84, 0x44, 0x21, 0xbd,
  0x6c, 0x08, 0x4e, 0xbe, 0x5e, 0x4d, 0x4a, 0xbd, 0x54, 0xdf, 0xc8, 0xbe,
  0x97, 0x3d, 0x66, 0xbd, 0xce, 0x86, 0x97, 0xbe, 0x5a, 0xf2, 0xa6, 0xbe,
  0x90, 0xae, 0xef, 0x3e, 0x2a, 0x23, 0xa6, 0xbe, 0x4e, 0x55, 0x9d, 0x3d,
  0x69, 0x6e, 0xf6, 0xbe, 0x1a, 0x7f, 0x73, 0xbe, 0x94, 0xaa, 0x64, 0xbe,
  0x8f, 0x9f, 0xe7, 0x38, 0x03, 0x45, 0x8e, 0x3d, 0x42, 0xc6, 0x22, 0xbd,
  0x25, 0xae, 0xa9, 0x3d, 0x6e, 0xcc, 0x01, 0x3d, 0xec, 0xba, 0xd9, 0xbd,
  0x81, 0x93, 0x17, 0x3f, 0x18, 0x71, 0x4d, 0xbe, 0xc9, 0xde, 0xd6, 0xbe,
  0x44, 0x4d, 0x13, 0xbf, 0x50, 0xbb, 0x24, 0xbe, 0x69, 0x41, 0x34, 0xbf,
  0xfa, 0xb3, 0x8f, 0x3d, 0x78, 0x69, 0xcf, 0xbe, 0x94, 0x8f, 0x1a, 0xbe,
  0xcc, 0x3a, 0x2b, 0x3c, 0x8a, 0xcf, 0x72, 0xbe, 0xae, 0x9b, 0x0e, 0x3e,
  0x29, 0x76, 0x2a, 0xbd, 0x56, 0x7f, 0xc1, 0x3d, 0x0b, 0x8f, 0x7f, 0x3e,
  0x7a, 0xc1, 0x97, 0xbd, 0xa6, 0xb3, 0x90, 0x3e, 0x3d, 0xaf, 0xe8, 0xbd,
  0x3f, 0xe0, 0xc1, 0xbe, 0x11, 0x5e, 0x3e, 0xbe, 0xf1, 0x69, 0x1e, 0x3e,
  0x35, 0xd2, 0xc2, 0xbe, 0x21, 0xfa, 0x2d, 0x3e, 0xd5, 0xed, 0xc6, 0xbc,
  0xf7, 0x5a, 0x95, 0x3c, 0xa1, 0x3a, 0x33, 0xbd, 0x79, 0x71, 0x5a, 0x3c,
  0x7a, 0x0c, 0xc6, 0x3d, 0x19, 0xcf, 0xe8, 0xbd, 0xb6, 0x2d, 0xc0, 0x3c,
  0xa9, 0x8b, 0x55, 0x3e, 0x99, 0x9f, 0x6d, 0xbd, 0x0e, 0x16, 0x6b, 0x3e,
  0x73, 0xab, 0x6f, 0x3d, 0x38, 0x93, 0x26, 0xbe, 0x8d, 0xc8, 0x41, 0xbe,
  0xc7, 0x71, 0x88, 0xbd, 0x97, 0x60, 0xd6, 0xbe, 0x92, 0xb5, 0xc7, 0x3d,
  0xda, 0x08, 0x40, 0xbe, 0xc8, 0x83, 0x17, 0xbf, 0xff, 0x91, 0xd1, 0x3d,
  0x3d, 0x88, 0xce, 0x3d, 0xc5, 0xcd, 0x51, 0xbe, 0xf7, 0x4e, 0x2e, 0xbd,
  0xaa, 0x69, 0x74, 0x3d, 0x7b, 0xcb, 0x07, 0xbd, 0xf7, 0xcc, 0x92, 0xbd,
  0x02, 0x6f, 0x98, 0x3d, 0x7e, 0x00, 0x29, 0x3e, 0xc6, 0xe8, 0xbc, 0x3d,
  0x72, 0x8f, 0x90, 0xbe, 0x12, 0x66, 0x5b, 0x3d, 0x10, 0xff, 0x8e, 0xbe,
  0x4a, 0x68, 0x14, 0x3e, 0x81, 0x49, 0x6d, 0xbe, 0x52, 0x67, 0x4c, 0x3e,
  0x9f, 0xe4, 0x84, 0xbe, 0xe8, 0xcf, 0x8a, 0xbd, 0x86, 0x91, 0x87, 0x3e,
  0x6c, 0x15, 0xc3, 0xbe, 0x62, 0x6a, 0xa0, 0xbd, 0x11, 0x6c, 0x6d, 0x3e,
  0x1a, 0xf5, 0xe4, 0x3d, 0xd6, 0x6e, 0xf3, 0x3e, 0x98, 0x55, 0x42, 0x3e,
  0x78, 0x27, 0x16, 0xbe, 0xdd, 0x2b, 0x25, 0xbe, 0xae, 0xdd, 0x9e, 0x3e,
  0x5c, 0xae, 0xc9, 0x3c, 0xfb, 0x68, 0x73, 0x3e, 0x55, 0x63, 0x2b, 0xbe,
  0xba, 0x25, 0x44, 0x3e, 0x0d, 0x6c, 0xca, 0xba, 0xe5, 0xe0, 0x5f, 0xbd,
  0xcd, 0x2b, 0x7e, 0x3e, 0xb5, 0xdf, 0xc2, 0xbe, 0x7f, 0xf4, 0x91, 0x3e,
  0xbc, 0xf1, 0x5e, 0x3e, 0xf5, 0x2b, 0xb1, 0x3c, 0x07, 0xbe, 0x78, 0x3e,
  0x4e, 0xc3, 0xca, 0x3e, 0x99, 0x77, 0xd7, 0xbc, 0xc7, 0x73, 0x2a, 0xbd,
  0x33, 0x4e, 0x0f, 0x3e, 0xed, 0x56, 0x89, 0xbd, 0x91, 0x3a, 0x06, 0x3e,
  0x2a, 0x34, 0xd9, 0xbc, 0x6b, 0x94, 0x87, 0xbc, 0x33, 0x56, 0x0a, 0xbe,
  0xd8, 0x73, 0xfb, 0xbd, 0x9a, 0x13, 0xb4, 0x3d, 0x9e, 0x9a, 0x30, 0xbe,
  0x7f, 0x93, 0xa6, 0x3e, 0xc3, 0xe1, 0xcf, 0x3d, 0x93, 0xe4, 0x78, 0x3d,
  0xe7, 0x0d, 0x4a, 0x3e, 0x7d, 0x29, 0xa7, 0x3e, 0x91, 0xb9, 0x0f, 0x3d,
  0xda, 0x8c, 0x9b, 0x3d, 0x8a, 0x53, 0x37, 0x3e, 0x01, 0xdd, 0xf4, 0xba,
  0xc3, 0x08, 0x88, 0x3e, 0x65, 0xa5, 0x0a, 0xbe, 0xbd, 0x85, 0x06, 0x3e,
  0xdd, 0x2e, 0x3e, 0x3c, 0x01, 0xa0, 0x37, 0xbe, 0x02, 0xf8, 0x7d, 0x3e,
  0x47, 0xcf, 0x08, 0x3d, 0xdf, 0xab, 0xa6, 0x3e, 0x2c, 0x2b, 0x48, 0x3e,
  0x01, 0xcf, 0x23, 0x3d, 0x36, 0x8d, 0xd9, 0x3e, 0x72, 0xe6, 0x1a, 0x3f,
  0x68, 0x68, 0xe3, 0xbe, 0x5b, 0x34, 0xcc, 0xbc, 0xae, 0x6e, 0x4f, 0xbd,
  0xdc, 0x74, 0xe0, 0x3d, 0xb7, 0xe3, 0x94, 0xbd, 0x07, 0x05, 0xf5, 0xbd,
  0x2d, 0xb5, 0x03, 0xbe, 0x0e, 0x5c, 0x16, 0xbd, 0xac, 0x8b, 0xa6, 0xbe,
  0xa5, 0x8e, 0x8e, 0x3e, 0x73, 0xdb, 0xa5, 0xbb, 0xa1, 0x2a, 0x4b, 0x3e,
  0x13, 0x7d, 0x65, 0x3e, 0x96, 0x4d, 0x99, 0xbc, 0x26, 0xd0, 0x63, 0x3e,
  0xdf, 0x87, 0x5c, 0x3c, 0x99, 0x3a, 0x5c, 0x3d, 0x64, 0x3d, 0x50, 0xbd,
  0x15, 0x73, 0xc5, 0x3d, 0x16, 0x0c, 0x2b, 0x3c, 0x7b, 0x4c, 0x73, 0xbe,
  0x19, 0x41, 0x16, 0xbe, 0xbf, 0xf3, 0x07, 0xbf, 0x13, 0xdf, 0x2c, 0x3e,
  0x9d, 0x85, 0xdf, 0xbe, 0xbd, 0xb2, 0x52, 0x3d, 0x7d, 0xe8, 0x3b, 0x3d,
  0x87, 0x88, 0x3e, 0xbe, 0x91, 0x66, 0x68, 0xbd, 0xfc, 0x91, 0x05, 0xbd,
  0x3d, 0x51, 0x44, 0xbe, 0x8c, 0x79, 0x86, 0xbe, 0x8d, 0x04, 0x22, 0x3c,
  0x54, 0xb7, 0x89, 0xbd, 0x59, 0xcf, 0x70, 0x3d, 0x38, 0x7b, 0x13, 0x3c,
  0xd3, 0x37, 0xf4, 0xbd, 0x78, 0x48, 0x2c, 0xbe, 0x43, 0x88, 0x5a, 0xbe,
  0xb1, 0x45, 0x58, 0x3d, 0xc1, 0x22, 0xce, 0xbe, 0x22, 0xab, 0x14, 0x3d,
  0xbb, 0x9e, 0x72, 0xbd, 0x42, 0x3d, 0x24, 0xbe, 0x93, 0x51, 0x1c, 0xbd,
  0x6b, 0xf0, 0x20, 0xbd, 0x0d, 0xad, 0x63, 0xbc, 0x64, 0x42, 0x59, 0xbd,
  0xa6, 0x02, 0x82, 0xbd, 0x6e, 0x08, 0x8d, 0xbe, 0xcb, 0x3a, 0xb8, 0xbd,
  0x34, 0x51, 0x6e, 0x3d, 0x9f, 0x53, 0x97, 0xbb, 0x17, 0xc6, 0x5e, 0xbe,
  0x99, 0x39, 0x87, 0xbe, 0xe1, 0x72, 0x44, 0x3e, 0x38, 0x19, 0xb2, 0xbe,
  0xfb, 0xe6, 0x3d, 0xbd, 0x69, 0x8c, 0xa0, 0xbd, 0xbf, 0x49, 0x3f, 0xbe,
  0xb3, 0x0c, 0x08, 0xbd, 0x25, 0x1e, 0x8b, 0xbc, 0x5e, 0xb3, 0x9e, 0xbd,
  0xc2, 0x05, 0xb3, 0xbe, 0x43, 0x76, 0x9b, 0xbc, 0xea, 0x5f, 0x56, 0xbe,
  0x4d, 0x3c, 0x52, 0x3e, 0xbc, 0xbb, 0xd5, 0x3a, 0x1c, 0xcd, 0x8a, 0xbd,
  0x78, 0x74, 0x5a, 0xbe, 0xab, 0x2e, 0xb9, 0xbb, 0x11, 0x28, 0x12, 0x3d,
  0xa6, 0xdf, 0xaf, 0xbe, 0x8a, 0x43, 0x92, 0x3e, 0x51, 0xd6, 0x2b, 0x3d,
  0x4f, 0xd6, 0x88, 0x3e, 0xd0, 0x0c, 0xe7, 0x3d, 0xc6, 0x15, 0xe9, 0xbc,
  0x8c, 0xbd, 0x7c, 0x3e, 0x3c, 0xfa, 0xe4, 0x3e, 0x8e, 0xfb, 0x2e, 0xbe,
  0x71, 0xff, 0x28, 0xbe, 0x1f, 0xe9, 0x00, 0x3e, 0x34, 0x17, 0xc2, 0xba,
  0x79, 0x4f, 0xa3, 0x3b, 0x56, 0x94, 0xba, 0xbd, 0x6b, 0x34, 0xaf, 0x3d,
  0x48, 0x9e, 0x5c, 0x3d, 0xf3, 0xde, 0x53, 0xbe, 0x3e, 0x6a, 0x04, 0xbc,
  0x1e, 0x93, 0xc9, 0x3d, 0x9e, 0x35, 0x3f, 0x3e, 0x1c, 0xe7, 0xf7, 0x3d,
  0x74, 0x86, 0x15, 0x3c, 0xa2, 0x98, 0x33, 0x3d, 0xb5, 0x98, 0xa2, 0x3e,
  0xa5, 0xe0, 0x16, 0xbe, 0x92, 0x3b, 0xf1, 0xbd, 0xb1, 0x4e, 0x16, 0x3e,
  0x3e, 0x82, 0xa2, 0x3b, 0xda, 0x72, 0x7d, 0xbe, 0xa0, 0x8c, 0xb5, 0xbd,
  0x7a, 0x62, 0xee, 0xbd, 0xbb, 0xf5, 0x3f, 0xbd, 0xf5, 0x2a, 0x17, 0x3f,
  0xa4, 0x53, 0x48, 0xbe, 0xd1, 0xd0, 0x13, 0x3d, 0x43, 0x4d, 0x0c, 0xbe,
  0x7a, 0xca, 0x6b, 0xbe, 0x4a, 0x7c, 0xf6, 0xbd, 0x37, 0x83, 0xed, 0xbd,
  0xeb, 0xac, 0xe0, 0x3e, 0xf5, 0x35, 0x08, 0x3f, 0x4e, 0x83, 0x7d, 0x3d,
  0xb5, 0xe2, 0xca, 0xbd, 0x9e, 0xb4, 0x68, 0x3d, 0x09, 0x84, 0xbf, 0x3d,
  0xe6, 0x0b, 0x04, 0x3e, 0x33, 0xc2, 0x23, 0x3e, 0x7e, 0x4c, 0x5e, 0xbd,
  0xbe, 0xae, 0xf6, 0x3e, 0xe9, 0x43, 0x89, 0x3e, 0x6e, 0x0d, 0x27, 0xbd,
  0x64, 0x6b, 0x98, 0xbd, 0x43, 0xb2, 0xb2, 0x3d, 0xb9, 0x34, 0x4d, 0xbe,
  0x3c, 0x25, 0x89, 0x3e, 0x54, 0x0b, 0xd7, 0xbd, 0xbf, 0x82, 0x93, 0x3d,
  0xab, 0x0b, 0x91, 0xbe, 0x06, 0xad, 0x05, 0xbe, 0xf7, 0xef, 0x93, 0xbe,
  0xe3, 0x91, 0x92, 0x3e, 0x9b, 0xf3, 0x94, 0xbe, 0xfd, 0x0b, 0x5a, 0x3f,
  0x61, 0xb0, 0xdf, 0x3e, 0x27, 0xb4, 0xb6, 0x3e, 0x64, 0x0d, 0x09, 0x3f,
  0xc9, 0xa7, 0x1c, 0xbc, 0x4c, 0xbe, 0xe3, 0xbd, 0x5a, 0xbf, 0x96, 0x3d,
  0x50, 0x72, 0x8c, 0xbe, 0xcf, 0xa5, 0x1a, 0x3e, 0x27, 0x51, 0x95, 0x3e,
  0x71, 0x0e, 0x98, 0x3d, 0x66, 0x4d, 0x27, 0x3f, 0xea, 0xaa, 0x71, 0x3d,
  0x03, 0xdb, 0x38, 0xbe, 0xd5, 0x10, 0x36, 0xbe, 0x8d, 0x1e, 0x16, 0x3e,
  0x7d, 0xc9, 0x19, 0x3f, 0xa9, 0x8d, 0x83, 0x3e, 0xef, 0x20, 0x04, 0x3e,
  0x41, 0xbe, 0x16, 0x3f, 0x3e, 0xf9, 0xd9, 0xbd, 0x14, 0x6e, 0x48, 0x3e,
  0x95, 0x0c, 0xfd, 0x3d, 0xde, 0xe0, 0xe5, 0x3d, 0x9d, 0xde, 0x95, 0x3e,
  0xbf, 0xbf, 0x1e, 0x3e, 0x59, 0x91, 0x12, 0x3f, 0x93, 0x0f, 0x51, 0x3f,
  0xcf, 0x9f, 0x31, 0xbe, 0x01, 0x90, 0xf7, 0xbd, 0xeb, 0x56, 0x08, 0x3e,
  0xf7, 0x7e, 0xbd, 0x3e, 0xba, 0xde, 0x0b, 0x3d, 0x77, 0x1a, 0xbb, 0x3e,
  0x09, 0x77, 0x16, 0x3e, 0x6a, 0x0e, 0x0a, 0x3e, 0xcc, 0xfc, 0xff, 0x3d,
  0x49, 0x9d, 0x5c, 0x3e, 0xfe, 0xf6, 0x9e, 0xbd, 0x2f, 0x1b, 0x8d, 0xbe,
  0xb6, 0x23, 0xf7, 0xbd, 0xee, 0x0d, 0x1c, 0x3d, 0x5d, 0x9d, 0xd1, 0x3e,
  0xf5, 0x9b, 0xa1, 0x3d, 0x8d, 0x10, 0x27, 0xbe, 0x4a, 0xbd, 0x31, 0x3c,
  0x62, 0x3a, 0xab, 0x3b, 0x81, 0xd9, 0x77, 0x3e, 0x39, 0xb4, 0x33, 0xbe,
  0xc5, 0x38, 0xf0, 0x3e, 0x7d, 0x61, 0xa7, 0x3e, 0xb8, 0x08, 0x25, 0x3d,
  0xcb, 0x06, 0xec, 0xbd, 0x47, 0x48, 0x7d, 0xbc, 0xa2, 0xcb, 0x95, 0xbe,
  0xd4, 0x43, 0xdd, 0xbd, 0xa9, 0x63, 0x7a, 0xbe, 0xb1, 0xd7, 0x54, 0xbc,
  0xa8, 0xc5, 0x5b, 0x3e, 0x3a, 0x8f, 0x08, 0x3f, 0x59, 0x5f, 0x39, 0xbe,
  0xec, 0x20, 0x3b, 0xbe, 0x7c, 0x6e, 0xd5, 0xbd, 0xe3, 0x31, 0xe1, 0xbd,
  0x0e, 0x1f, 0x00, 0xbe, 0x9e, 0xa8, 0x78, 0xbe, 0x9d, 0x37, 0xfe, 0x3e,
  0xf1, 0x00, 0xcf, 0x3d, 0x36, 0xec, 0x52, 0x3d, 0x38, 0x2b, 0x7c, 0x3d,
  0xfe, 0xc5, 0xc2, 0xbd, 0x0b, 0x4b, 0x22, 0xbe, 0x73, 0x14, 0xb5, 0x3e,
  0xe1, 0x70, 0x38, 0x3e, 0xac, 0x65, 0xbe, 0x3d, 0x36, 0x61, 0x55, 0x3e,
  0x25, 0x17, 0x21, 0xbe, 0xc0, 0x0a, 0xec, 0x3c, 0x66, 0x7e, 0x0d, 0xbd,
  0xc0, 0xc9, 0x11, 0xbe, 0xd8, 0xd4, 0x58, 0xbe, 0x3d, 0x20, 0x05, 0x3e,
  0x20, 0xc9, 0x60, 0xbe, 0xc3, 0xb0, 0x10, 0xbf, 0x8e, 0xcb, 0xb9, 0x3e,
  0x51, 0xfc, 0xc9, 0xbe, 0x11, 0x56, 0xd0, 0xbe, 0xfa, 0xd5, 0x79, 0x3b,
  0xfd, 0x0d, 0xe0, 0xbd, 0xc4, 0xa5, 0x1d, 0x3d, 0x94, 0xb0, 0x9e, 0xbe,
  0xfb, 0xc3, 0x81, 0xbe, 0x63, 0x1f, 0x9b, 0x3e, 0xad, 0x6a, 0x5a, 0x3d,
  0x09, 0xb4, 0x08, 0xbe, 0x4a, 0x44, 0x4c, 0xbe, 0x34, 0x8e, 0x9f, 0xbd,
  0x54, 0xb8, 0xaa, 0x3e, 0x78, 0x54, 0xd7, 0xbe, 0x28, 0xaa, 0x85, 0xbe,
  0x58, 0x77, 0xd9, 0x3e, 0xd0, 0xa7, 0x6f, 0xbe, 0x46, 0x95, 0xc0, 0xbd,
  0xce, 0x08, 0xfd, 0x3c, 0x9d, 0x93, 0x3e, 0xbd, 0x81, 0x70, 0xab, 0xbd,
  0xf9, 0x5f, 0x9c, 0xbe, 0xb5, 0xd9, 0x03, 0x3d, 0xc1, 0xa8, 0x70, 0x3e,
  0x3c, 0x8c, 0x36, 0x3d, 0xe1, 0x1d, 0x83, 0xbe, 0xae, 0xe6, 0x23, 0xbe,
  0x41, 0x3f, 0xb9, 0x3b, 0x56, 0xcc, 0xa6, 0x3d, 0x80, 0x7f, 0x32, 0xbe,
  0x64, 0xda, 0x16, 0xbe, 0xa3, 0xd8, 0x3b, 0x3e, 0xcc, 0x80, 0xde, 0x3d,
  0x8c, 0x57, 0xd9, 0x3c, 0xf6, 0x29, 0xc8, 0x3d, 0xde, 0x1d, 0x74, 0xbe,
  0x41, 0x89, 0x88, 0xbb, 0x92, 0x62, 0x41, 0xbe, 0x2c, 0x80, 0xa3, 0xbc,
  0xcd, 0x2a, 0x8e, 0x3e, 0x41, 0x56, 0x9c, 0x3d, 0xfb, 0x73, 0xac, 0xbe,
  0xf3, 0xa0, 0x54, 0xbe, 0xf7, 0x46, 0xb5, 0xbd, 0x01, 0x2d, 0x4c, 0x3e,
  0xda, 0xa8, 0x97, 0xbe, 0xd0, 0xd9, 0x63, 0xbd, 0x49, 0xa4, 0x30, 0x3e,
  0xc8, 0xc4, 0x1a, 0xbe, 0x60, 0x18, 0xff, 0xbc, 0x2c, 0x8f, 0xf5, 0x3d,
  0xd1, 0x12, 0x72, 0x3d, 0xb1, 0xa3, 0x3b, 0xbd, 0x93, 0x79, 0x89, 0xbe,
  0xf6, 0xfa, 0x45, 0xbe, 0x07, 0x5c, 0x33, 0x3e, 0x4c, 0x2e, 0x34, 0x3d,
  0x04, 0x20, 0xf2, 0xbd, 0x26, 0xf5, 0xdc, 0xbd, 0x88, 0x79, 0xa3, 0xbc,
  0x9d, 0x6e, 0x24, 0x3e, 0xbd, 0x26, 0xf3, 0xbe, 0x5a, 0x97, 0x9e, 0x3d,
  0x4e, 0x48, 0x08, 0x3f, 0xcc, 0x27, 0x89, 0xbc, 0x36, 0xe7, 0xb7, 0x3d,
  0x45, 0xc9, 0xd2, 0xbd, 0xf4, 0x35, 0x32, 0xbe, 0xb1, 0x8a, 0xf5, 0x3d,
  0x0d, 0xd9, 0x4d, 0xbe, 0xc3, 0xb4, 0xa4, 0xbc, 0x78, 0xbd, 0x60, 0x3d,
  0xc1, 0xef, 0x75, 0x3d, 0xc0, 0x27, 0xb7, 0xbe, 0x8a, 0xe8, 0x2d, 0xbe,
  0x73, 0xd9, 0x82, 0x3d, 0x70, 0xdd, 0x4b, 0x3e, 0x5f, 0xef, 0x9d, 0xbe,
  0x80, 0x77, 0x93, 0xbd, 0x6a, 0x00, 0x9f, 0x3e, 0x1f, 0x63, 0xbf, 0x3d,
  0x22, 0xdd, 0x5d, 0xbe, 0xa8, 0x4b, 0x2e, 0xbc, 0x99, 0x51, 0x45, 0x3c,
  0xae, 0x1b, 0x92, 0xbd, 0x7b, 0x64, 0xc0, 0xbe, 0x81, 0x87, 0x95, 0xbe,
  0x78, 0xbb, 0x49, 0x3e, 0x75, 0xe9, 0x30, 0x3c, 0x40, 0x1a, 0xed, 0xbe,
  0xf1, 0x0c, 0xe8, 0xbd, 0xeb, 0x02, 0x2c, 0xbe, 0x22, 0x7a, 0x96, 0x3d,
  0xf6, 0x5f, 0x21, 0xbe, 0xd9, 0xc9, 0xb9, 0xbe, 0x81, 0xcb, 0x67, 0x3d,
  0x89, 0x47, 0x1a, 0xbe, 0xf9, 0xa3, 0x1a, 0xbd, 0x33, 0x25, 0x7a, 0xbc,
  0x4e, 0x75, 0x8d, 0xbe, 0xa1, 0xcb, 0x1d, 0xbd, 0xa1, 0x5e, 0x64, 0xbe,
  0xbd, 0x4d, 0xa5, 0xbe, 0x23, 0x20, 0x71, 0x3e, 0xc8, 0x39, 0x98, 0xbe,
  0xf8, 0x72, 0x90, 0xbd, 0x65, 0x26, 0x29, 0xbe, 0xca, 0x1a, 0x65, 0xbd,
  0xde, 0x4b, 0x8d, 0xbd, 0x7b, 0xaa, 0x76, 0x3d, 0x86, 0xaf, 0x71, 0xbe,
  0x5d, 0xa7, 0x93, 0x3d, 0x92, 0x5a, 0x02, 0xbe, 0x54, 0xb9, 0x99, 0x3d,
  0x59, 0x3c, 0x92, 0xbe, 0x4b, 0x1c, 0x71, 0xbd, 0x5e, 0x56, 0x1e, 0x3f,
  0xe9, 0xbe, 0xbe, 0xbd, 0x2b, 0xfc, 0x55, 0xbe, 0x67, 0x9f, 0xb6, 0x3d,
  0xed, 0x28, 0x47, 0xbd, 0xad, 0x6d, 0x41, 0x3c, 0xbc, 0xd4, 0x3e, 0xbe,
  0x09, 0xd7, 0x8a, 0x3d, 0x50, 0x66, 0xcb, 0x3d, 0x41, 0x9f, 0xdc, 0xbb,
  0xdc, 0x76, 0x91, 0x3b, 0x2f, 0x05, 0xfa, 0xbc, 0xdb, 0xcd, 0x97, 0xbd,
  0xbd, 0x21, 0x04, 0x3e, 0xbb, 0x3d, 0x5a, 0xbe, 0x92, 0xf8, 0xc2, 0x3d,
  0xc2, 0x80, 0x8f, 0x3f, 0x94, 0xe3, 0x2c, 0x3e, 0x4c, 0x48, 0x6a, 0xbe,
  0x1b, 0x9b, 0xfe, 0x3d, 0x39, 0xec, 0x9d, 0xbd, 0xdd, 0x3a, 0x6f, 0xbe,
  0xf3, 0x75, 0xb6, 0xbc, 0x77, 0x56, 0x55, 0x3d, 0x09, 0xb7, 0x36, 0x3e,
  0x29, 0x83, 0x65, 0xbd, 0xb2, 0x16, 0x51, 0xbe, 0x20, 0xc2, 0x9f, 0x3e,
  0xc8, 0x75, 0x24, 0x3b, 0xce, 0xfa, 0x2a, 0xbe, 0xd7, 0x94, 0x31, 0xbe,
  0x48, 0xd7, 0x62, 0x3d, 0x20, 0xd3, 0xa5, 0x3f, 0xb6, 0xbd, 0x5c, 0xbe,
  0x8c, 0xdd, 0xe0, 0x3d, 0x0b, 0x19, 0x2f, 0x3e, 0x3d, 0x9d, 0x84, 0xbe,
  0xc7, 0xad, 0x3f, 0xbe, 0x6d, 0x70, 0xd8, 0xbd, 0xde, 0x40, 0x64, 0xbe,
  0x25, 0x3b, 0x29, 0xbe, 0xe7, 0xc0, 0x2e, 0xbe, 0x60, 0xb2, 0x46, 0x3e,
  0x8a, 0x1b, 0xcf, 0x3d, 0xb1, 0x6c, 0xb9, 0x3d, 0xdd, 0x3f, 0x57, 0xbe,
  0x68, 0x60, 0x8c, 0xbe, 0x8f, 0x93, 0x7f, 0xbd, 0x22, 0x52, 0xae, 0x3f,
  0x57, 0xe5, 0x99, 0x3d, 0x01, 0x57, 0x06, 0x3d, 0x78, 0xd4, 0xca, 0x3c,
  0x98, 0x60, 0x6c, 0xba, 0xb8, 0xe3, 0x0d, 0xbd, 0x81, 0xaa, 0x0f, 0xbb,
  0xd7, 0xe2, 0x5e, 0xbe, 0x42, 0x64, 0xdf, 0x3d, 0xb5, 0xe0, 0x48, 0x3d,
  0xa4, 0x10, 0xd0, 0x3d, 0x97, 0x2a, 0xdf, 0x3d, 0x5e, 0x30, 0x26, 0x3e,
  0x09, 0x93, 0x8c, 0xbd, 0xa9, 0x37, 0x34, 0xbe, 0x26, 0xf3, 0xc5, 0xbd,
  0xfa, 0xbd, 0x81, 0x3f, 0x1e, 0xef, 0x57, 0xbe, 0xd6, 0x39, 0x64, 0xbb,
  0x58, 0xec, 0x9a, 0x3d, 0x69, 0xe2, 0x2c, 0xbd, 0xd2, 0xdb, 0x1e, 0xbd,
  0xb4, 0x69, 0xc2, 0xbc, 0xed, 0xd2, 0xce, 0xbd, 0x28, 0x2a, 0x16, 0xbe,
  0xb9, 0xab, 0x5f, 0xbe, 0x82, 0xe0, 0xcd, 0xbd, 0xb1, 0x02, 0xa2, 0x3e,
  0xec, 0x7e, 0x9c, 0x3d, 0x19, 0x7f, 0x18, 0x3d, 0x31, 0x39, 0x8d, 0xbe,
  0x4a, 0x23, 0x03, 0x3e, 0xcf, 0xfa, 0x90, 0x3f, 0x61, 0x9b, 0x08, 0xbe,
  0xed, 0x0b, 0x14, 0xbe, 0xe3, 0x55, 0x40, 0x3d, 0x73, 0xbf, 0x63, 0xbe,
  0x56, 0x7a, 0x6a, 0xbd, 0x29, 0xb2, 0x3c, 0xbe, 0xf0, 0xdd, 0x8a, 0xbe,
  0xb2, 0x7f, 0x22, 0x3d, 0x8d, 0x2d, 0xa1, 0xbd, 0x6b, 0x59, 0x81, 0xbe,
  0x94, 0xc8, 0x8f, 0x3d, 0x62, 0x0e, 0x61, 0xbe, 0x1b, 0x60, 0x78, 0xbb,
  0xc9, 0xfc, 0xc6, 0xbe, 0x00, 0xf9, 0x1e, 0x3d, 0x85, 0x8b, 0xa9, 0x3e,
  0x2e, 0xad, 0x7d, 0xbe, 0x19, 0xc8, 0x3b, 0xbe, 0xad, 0x80, 0x2a, 0xbe,
  0xf4, 0xb7, 0x95, 0xbe, 0x2a, 0x74, 0x64, 0xbe, 0x2f, 0x8c, 0x97, 0x3b,
  0xac, 0x56, 0xaf, 0x3d, 0xcd, 0x7f, 0xc4, 0xbe, 0xbd, 0x8c, 0x70, 0xbe,
  0x6c, 0x9e, 0x46, 0xbe, 0x22, 0xba, 0x91, 0x3d, 0x00, 0xfc, 0x8d, 0x3d,
  0x24, 0xe8, 0x6e, 0xbd, 0x3b, 0xaa, 0xb6, 0xbe, 0x2d, 0x03, 0x57, 0xba,
  0x6a, 0xf4, 0x86, 0x3f, 0x14, 0xf1, 0x23, 0xbe, 0x79, 0xa2, 0xdd, 0xbd,
  0x55, 0x5e, 0x6e, 0x3e, 0x13, 0xb7, 0x97, 0xbc, 0xb9, 0x77, 0xfb, 0xbd,
  0x98, 0x17, 0xb7, 0x3c, 0x88, 0x41, 0x9b, 0xbe, 0x72, 0x5b, 0x19, 0xbb,
  0xc9, 0xca, 0x98, 0xbe, 0xa6, 0x04, 0x96, 0xbd, 0xbc, 0x84, 0x1a, 0x3e,
  0x39, 0xcb, 0xfa, 0xbc, 0x65, 0x8e, 0x50, 0xbe, 0xf5, 0xf9, 0x93, 0xbe,
  0xb0, 0x35, 0xfb, 0x3d, 0xf9, 0xf0, 0xa1, 0x3f, 0x49, 0x41, 0x2c, 0x3e,
  0x22, 0x50, 0x70, 0xbe, 0xa7, 0xc3, 0x81, 0x3d, 0x27, 0x60, 0x4d, 0xbe,
  0x34, 0x03, 0xcd, 0x3d, 0x6a, 0x94, 0xd5, 0x3d, 0x8a, 0x2c, 0x3d, 0xbd,
  0xeb, 0xc3, 0xef, 0x3d, 0x36, 0x45, 0x06, 0xbe, 0x85, 0x3d, 0x3f, 0xbd,
  0xc7, 0x82, 0x06, 0x3d, 0x68, 0x20, 0x97, 0xbd, 0x38, 0xca, 0x07, 0xbe,
  0x36, 0x72, 0xd0, 0xbe, 0x84, 0x61, 0xb3, 0xbd, 0xdc, 0x08, 0x17, 0x40,
  0xd8, 0x8f, 0x26, 0xbe, 0xfe, 0x30, 0x88, 0x3d, 0xff, 0xc1, 0xa8, 0x3d,
  0x5a, 0x5a, 0x81, 0xbd, 0xa3, 0x8d, 0xae, 0x3c, 0x67, 0x74, 0xba, 0x3d,
  0x4d, 0x7d, 0x14, 0xbe, 0xb5, 0x6c, 0x33, 0xbd, 0x96, 0x3e, 0x59, 0xbe,
  0x60, 0x50, 0x50, 0xbd, 0xc3, 0x5d, 0x0e, 0xbd, 0x34, 0x88, 0x4a, 0x3d,
  0x1e, 0x43, 0x6c, 0xbe, 0xad, 0x55, 0x97, 0xbe, 0x92, 0x3d, 0x53, 0xbc,
  0x2e, 0xdb, 0x1d, 0x40, 0x71, 0x02, 0x39, 0xbe, 0xaa, 0x35, 0xdc, 0xbc,
  0x47, 0xbb, 0xd9, 0xbc, 0xf5, 0x71, 0xb9, 0xba, 0xa3, 0x1c, 0xb7, 0xbd,
  0x44, 0x39, 0x5d, 0xbe, 0x44, 0x0e, 0x5d, 0x3d, 0xb3, 0x92, 0x51, 0xbe,
  0xe1, 0xce, 0x50, 0x3c, 0xea, 0x46, 0xb6, 0xbc, 0x2e, 0xe0, 0xc3, 0x3e,
  0x1c, 0x6f, 0xa8, 0xbc, 0xe5, 0xa9, 0xa7, 0xbd, 0x33, 0xbb, 0xcf, 0xbe,
  0x57, 0xa1, 0x10, 0x3e, 0x61, 0x40, 0x16, 0x40, 0x0c, 0x2d, 0xb9, 0x3d,
  0x7c, 0xde, 0x66, 0x3d, 0x9b, 0xc3, 0x1b, 0xbe, 0xc5, 0x05, 0x78, 0xbe,
  0xd0, 0x87, 0xfe, 0xbd, 0x6d, 0xd3, 0x88, 0xbe, 0x86, 0x6c, 0x39, 0xbe,
  0x8d, 0x5f, 0x10, 0x3d, 0xf9, 0xc1, 0x69, 0xbd, 0x3d, 0xfb, 0x62, 0xbe,
  0x90, 0xca, 0x9a, 0x3e, 0xa5, 0x29, 0xd1, 0xba, 0x00, 0x21, 0x2d, 0xbd,
  0x32, 0xbb, 0x55, 0xbe, 0x07, 0xfa, 0xeb, 0xbd, 0xba, 0x59, 0xed, 0x3f,
  0xf7, 0x9c, 0xa7, 0xbd, 0x76, 0xba, 0x3e, 0x3d, 0xbc, 0x73, 0x85, 0xbe,
  0x2e, 0xb0, 0x25, 0xbe, 0xd8, 0x44, 0x18, 0x3e, 0x71, 0xf9, 0x73, 0xbe,
  0xf8, 0xb6, 0xf2, 0xbd, 0x2c, 0x70, 0x20, 0xbe, 0x52, 0xa0, 0xa7, 0xbd,
  0x65, 0x13, 0xdf, 0xbd, 0x78, 0xcc, 0x82, 0xbe, 0x86, 0x04, 0x86, 0x3d,
  0x30, 0x1f, 0x4d, 0xbe, 0x27, 0x8c, 0x8c, 0xbe, 0x14, 0x3b, 0xb2, 0xbc,
  0xe3, 0x22, 0x3e, 0x3f, 0x4d, 0xd4, 0xb9, 0xbd, 0xc3, 0x54, 0x48, 0xbe,
  0xa0, 0xf5, 0xeb, 0xbd, 0x63, 0x81, 0xab, 0xbe, 0x8d, 0x91, 0xf5, 0xbd,
  0xa2, 0x30, 0xe0, 0xbe, 0x70, 0x27, 0x1e, 0x3c, 0x1b, 0x4f, 0x71, 0xbe,
  0x41, 0x7f, 0x44, 0xbe, 0x33, 0xe7, 0x0f, 0xbe, 0x43, 0xcf, 0x06, 0x3e,
  0xa7, 0xa8, 0x2d, 0xbe, 0xad, 0x90, 0xc3, 0xbd, 0xd8, 0xdf, 0x35, 0xbd,
  0x5a, 0x30, 0x2a, 0x39, 0xbc, 0x2b, 0x45, 0xbe, 0x76, 0xce, 0x9d, 0xbe,
  0x59, 0xf3, 0x23, 0xbe, 0x8e, 0x9b, 0xd8, 0xbd, 0xc7, 0xe2, 0x17, 0xbe,
  0x13, 0xb5, 0x98, 0xbd, 0xe3, 0x33, 0x22, 0xbe, 0x6d, 0x60, 0x03, 0xbe,
  0xd5, 0xff, 0xc8, 0xbd, 0xc6, 0x3f, 0x5b, 0xbd, 0xd6, 0x19, 0x60, 0x3b,
  0xa0, 0x8f, 0x01, 0x3c, 0x90, 0x89, 0x19, 0x3e, 0xb3, 0x8e, 0x60, 0x3e,
  0x1e, 0x00, 0xab, 0xbe, 0x54, 0x79, 0x2d, 0x3e, 0x5c, 0xa0, 0x41, 0x3d,
  0x6c, 0x24, 0xf7, 0x3d, 0x8b, 0x29, 0x91, 0x3b, 0xb5, 0x3e, 0xaa, 0xbd,
  0x93, 0x07, 0xe7, 0xbc, 0xef, 0xcb, 0x57, 0x3e, 0x0e, 0xb3, 0x96, 0xbd,
  0xa0, 0xa9, 0xb3, 0x3d, 0xe8, 0x4f, 0x6d, 0xbe, 0xf0, 0x36, 0x39, 0xbe,
  0x7f, 0x0e, 0xff, 0x3d, 0x6c, 0xbd, 0xfa, 0x3d, 0xfe, 0x07, 0x40, 0xbd,
  0x2c, 0x2e, 0x49, 0x3c, 0x79, 0x21, 0x88, 0xbe, 0x1a, 0x1b, 0xd0, 0xbc,
  0xf3, 0x19, 0x90, 0x3c, 0xa9, 0x5c, 0x4a, 0xbd, 0x84, 0x9f, 0x53, 0x3d,
  0x45, 0x56, 0x6b, 0x3d, 0xeb, 0x16, 0x7c, 0xbd, 0x74, 0x4d, 0xa2, 0xbd,
  0x11, 0xbf, 0x10, 0x3d, 0xfd, 0x10, 0x85, 0xbe, 0x67, 0xbf, 0x43, 0xbe,
  0x42, 0x2e, 0x0b, 0x3e, 0xe6, 0x1a, 0x4d, 0x3d, 0xd6, 0xe4, 0xdc, 0x3d,
  0xb4, 0x07, 0x8e, 0xbe, 0x0b, 0x52, 0x54, 0x3e, 0xcd, 0x01, 0x23, 0xbc,
  0xba, 0x58, 0x8f, 0x3d, 0x91, 0x54, 0x91, 0x3d, 0x2f, 0x52, 0xb7, 0x3d,
  0x06, 0x08, 0xa7, 0xbe, 0x4e, 0xcb, 0x18, 0xbe, 0x08, 0xbc, 0xd5, 0xbe,
  0x9f, 0x7f, 0x84, 0x3d, 0x58, 0xfb, 0x57, 0xbe, 0x62, 0x98, 0x09, 0xbe,
  0x7c, 0x06, 0xff, 0xbd, 0xda, 0x14, 0x75, 0xbe, 0xef, 0x54, 0xd9, 0x3c,
  0xb0, 0x18, 0x94, 0xbd, 0x4e, 0x3f, 0x05, 0xbe, 0x25, 0x8d, 0x2e, 0xbb,
  0xa8, 0x0f, 0x79, 0xbe, 0x40, 0x67, 0x9d, 0x3d, 0x88, 0x83, 0x0c, 0xbe,
  0x90, 0x47, 0xce, 0x3d, 0xe1, 0x03, 0x85, 0xbe, 0x9c, 0xd6, 0x10, 0xbe,
  0xcb, 0x74, 0x25, 0xbe, 0xe8, 0x4c, 0x07, 0x3e, 0xbc, 0x25, 0x19, 0xbe,
  0x91, 0x2c, 0x3e, 0x3d, 0x6b, 0x12, 0x08, 0xbd, 0x7f, 0x0b, 0x32, 0xbe,
  0x19, 0xf1, 0xe7, 0xbd, 0x64, 0x89, 0x5f, 0xbe, 0xf2, 0x64, 0xb4, 0xbd,
  0xb0, 0x6f, 0x67, 0xbc, 0xde, 0xf4, 0xc9, 0xbd, 0x8f, 0x98, 0x3d, 0xbd,
  0xac, 0x8c, 0xbd, 0x3c, 0xce, 0x29, 0x8a, 0x3d, 0xa9, 0x9a, 0x43, 0xbe,
  0x24, 0xe5, 0x23, 0x3e, 0x1a, 0x29, 0xd2, 0xbd, 0x89, 0x38, 0xf3, 0x3d,
  0xc8, 0x53, 0x0f, 0xbe, 0xdd, 0xc3, 0x5d, 0x3d, 0xa2, 0x42, 0x54, 0x3d,
  0x4b, 0xd1, 0xaf, 0x3d, 0xbc, 0x55, 0x47, 0xbd, 0x33, 0x17, 0x30, 0xbe,
  0xbe, 0x01, 0x6f, 0x3e, 0x3b, 0x1b, 0x21, 0x3c, 0xdc, 0x7f, 0x0d, 0x3e,
  0x02, 0xd0, 0xf1, 0x3d, 0xa1, 0x92, 0x46, 0x3e, 0x67, 0x9a, 0x30, 0xbe,
  0xa1, 0x7d, 0xd4, 0x3d, 0xee, 0x2d, 0x15, 0x3e, 0x4a, 0xfe, 0xff, 0xff,
  0x10, 0x00, 0x00, 0x00, 0x05, 0x00, 0x00, 0x00, 0x14, 0x00, 0x00, 0x00,
  0x2c, 0x00, 0x00, 0x00, 0x02, 0x00, 0x00, 0x00, 0x10, 0x00, 0x00, 0x00,
  0x70, 0x00, 0x00, 0x00, 0x17, 0x00, 0x00, 0x00, 0x73, 0x65, 0x71, 0x75,
  0x65, 0x6e, 0x74, 0x69, 0x61, 0x6c, 0x2f, 0x64, 0x65, 0x6e, 0x73, 0x65,
  0x2f, 0x4d, 0x61, 0x74, 0x4d, 0x75, 0x6c, 0x00, 0x38, 0xfe, 0xff, 0xff,
  0x2e, 0xff, 0xff, 0xff, 0x04, 0x00, 0x00, 0x00, 0x08, 0x00, 0x00, 0x00,
  0xff, 0xff, 0xff, 0xff, 0x70, 0x00, 0x00, 0x00, 0x00, 0x00, 0x0e, 0x00,
  0x18, 0x00, 0x08, 0x00, 0x07, 0x00, 0x0c, 0x00, 0x10, 0x00, 0x14, 0x00,
  0x0e, 0x00, 0x00, 0x00, 0x00, 0x00, 0x00, 0x02, 0x10, 0x00, 0x00, 0x00,
  0x04, 0x00, 0x00, 0x00, 0x10, 0x00, 0x00, 0x00, 0x2c, 0x00, 0x00, 0x00,
  0x01, 0x00, 0x00, 0x00, 0x02, 0x00, 0x00, 0x00, 0x18, 0x00, 0x00, 0x00,
  0x73, 0x65, 0x71, 0x75, 0x65, 0x6e, 0x74, 0x69, 0x61, 0x6c, 0x2f, 0x66,
  0x6c, 0x61, 0x74, 0x74, 0x65, 0x6e, 0x2f, 0x43, 0x6f, 0x6e, 0x73, 0x74,
  0x00, 0x00, 0x00, 0x00, 0xa0, 0xfe, 0xff, 0xff, 0x96, 0xff, 0xff, 0xff,
  0x04, 0x00, 0x00, 0x00, 0x0c, 0x00, 0x00, 0x00, 0xe0, 0xd7, 0x1e, 0x40,
  0x2f, 0x95, 0x1f, 0xc0, 0x43, 0x2d, 0xd3, 0xbf, 0x0a, 0xff, 0xff, 0xff,
  0x10, 0x00, 0x00, 0x00, 0x03, 0x00, 0x00, 0x00, 0x10, 0x00, 0x00, 0x00,
  0x3c, 0x00, 0x00, 0x00, 0x01, 0x00, 0x00, 0x00, 0x03, 0x00, 0x00, 0x00,
  0x29, 0x00, 0x00, 0x00, 0x73, 0x65, 0x71, 0x75, 0x65, 0x6e, 0x74, 0x69,
  0x61, 0x6c, 0x2f, 0x64, 0x65, 0x6e, 0x73, 0x65, 0x5f, 0x31, 0x2f, 0x42,
  0x69, 0x61, 0x73, 0x41, 0x64, 0x64, 0x2f, 0x52, 0x65, 0x61, 0x64, 0x56,
  0x61, 0x72, 0x69, 0x61, 0x62, 0x6c, 0x65, 0x4f, 0x70, 0x00, 0x00, 0x00,
  0x60, 0xff, 0xff, 0xff, 0x00, 0x00, 0x06, 0x00, 0x08, 0x00, 0x04, 0x00,
  0x06, 0x00, 0x00, 0x00, 0x04, 0x00, 0x00, 0x00, 0x40, 0x00, 0x00, 0x00,
  0xc2, 0x6a, 0xfe, 0xbe, 0xcb, 0xe8, 0x3e, 0xbe, 0x28, 0xc2, 0x0b, 0xbe,
  0xc1, 0x43, 0x23, 0x40, 0x95, 0x09, 0xec, 0xbe, 0x00, 0x3c, 0x12, 0x3f,
  0x7e, 0x65, 0x57, 0x3f, 0x46, 0xc4, 0xbf, 0xbe, 0x43, 0x05, 0x77, 0x3f,
  0xfe, 0x20, 0x73, 0xbe, 0x15, 0x38, 0x9a, 0x3e, 0xcd, 0xf2, 0x07, 0xbf,
  0x46, 0x5a, 0xd8, 0x3f, 0xb3, 0x3e, 0x79, 0x3f, 0xfd, 0xfb, 0xcd, 0x3f,
  0xfc, 0x9f, 0x3f, 0xbe, 0xae, 0xff, 0xff, 0xff, 0x10, 0x00, 0x00, 0x00,
  0x02, 0x00, 0x00, 0x00, 0x10, 0x00, 0x00, 0x00, 0x3c, 0x00, 0x00, 0x00,
  0x01, 0x00, 0x00, 0x00, 0x10, 0x00, 0x00, 0x00, 0x27, 0x00, 0x00, 0x00,
  0x73, 0x65, 0x71, 0x75, 0x65, 0x6e, 0x74, 0x69, 0x61, 0x6c, 0x2f, 0x64,
  0x65, 0x6e, 0x73, 0x65, 0x2f, 0x42, 0x69, 0x61, 0x73, 0x41, 0x64, 0x64,
  0x2f, 0x52, 0x65, 0x61, 0x64, 0x56, 0x61, 0x72, 0x69, 0x61, 0x62, 0x6c,
  0x65, 0x4f, 0x70, 0x00, 0x04, 0x00, 0x06, 0x00, 0x04, 0x00, 0x00, 0x00,
  0x00, 0x00, 0x0e, 0x00, 0x14, 0x00, 0x04, 0x00, 0x00, 0x00, 0x08, 0x00,
  0x0c, 0x00, 0x10, 0x00, 0x0e, 0x00, 0x00, 0x00, 0x10, 0x00, 0x00, 0x00,
  0x01, 0x00, 0x00, 0x00, 0x1c, 0x00, 0x00, 0x00, 0x2c, 0x00, 0x00, 0x00,
  0x04, 0x00, 0x00, 0x00, 0x01, 0x00, 0x00, 0x00, 0x40, 0x00, 0x00, 0x00,
  0x03, 0x00, 0x00, 0x00, 0x01, 0x00, 0x00, 0x00, 0x0c, 0x00, 0x00, 0x00,
  0x63, 0x6f, 0x6e, 0x76, 0x32, 0x64, 0x5f, 0x69, 0x6e, 0x70, 0x75, 0x74,
  0x00, 0x00, 0x00, 0x00, 0xfc, 0xff, 0xff, 0xff, 0x04, 0x00, 0x04, 0x00,
  0x04, 0x00, 0x00, 0x00
};

unsigned int model_tflite_len = 12316;// Fill the int in `src/model.cc` here